<pad>	0
</s>	0
<unk>	0
,	-3.65238
▁the	-3.69542
.	-3.84636
▁(	-3.94802
s	-4.04941
▁)	-4.06164
▁and	-4.08191
▁to	-4.15783
x	-4.17412
▁of	-4.30947
▁a	-4.37739
▁.	-4.53933
.\	-4.57952
▁in	-4.65523
▁;	-4.69713
2\	-4.89851
xe	-4.91368
▁is	-4.9256
80\	-4.9661
\	-4.99825
▁for	-5.01656
▁{	-5.12049
▁}	-5.12201
▁you	-5.2469
▁,	-5.2675
-	-5.27987
▁with	-5.33397
▁that	-5.38518
n	-5.41647
▁on	-5.44549
99	-5.52467
▁I	-5.58758
▁public	-5.62685
▁are	-5.64391
▁this	-5.68139
▁it	-5.70816
▁your	-5.71797
▁return	-5.7345
▁	-5.7519
▁be	-5.77
▁=	-5.88849
▁as	-5.8899
d	-5.89724
▁or	-5.9666
▁get	-5.97122
▁"	-5.9775
▁at	-5.98067
▁from	-5.98871
▁have	-6.01813
▁can	-6.0475
▁will	-6.05423
▁The	-6.05971
t	-6.07374
▁new	-6.08563
"	-6.10929
▁by	-6.11554
9	-6.14313
▁@	-6.14323
_	-6.18912
▁was	-6.21134
▁\	-6.21975
ing	-6.2484
▁an	-6.25845
▁if	-6.33904
▁String	-6.33907
▁we	-6.36809
'	-6.37487
▁has	-6.38243
▁void	-6.39704
▁not	-6.4081
:	-6.41159
ed	-6.42311
▁our	-6.43802
▁all	-6.46843
▁<	-6.54436
▁>	-6.56709
▁more	-6.62715
▁their	-6.64287
)	-6.64606
▁Override	-6.6841
\'	-6.69029
▁one	-6.70759
▁but	-6.72788
▁out	-6.78354
▁about	-6.81103
▁they	-6.81222
nThe	-6.81677
c	-6.82372
▁my	-6.8256
▁also	-6.85529
▁time	-6.85773
▁up	-6.85853
!	-6.8672
▁which	-6.8706
▁set	-6.87629
▁so	-6.92206
▁null	-6.93001
/	-6.93477
m	-6.96146
▁A	-6.97895
▁do	-7.03499
▁We	-7.04605
er	-7.04944
▁other	-7.06577
▁It	-7.09432
▁when	-7.09671
▁like	-7.10226
▁been	-7.10383
▁who	-7.11029
▁his	-7.11982
!\	-7.13084
▁This	-7.14071
▁final	-7.143
re	-7.1488
▁-	-7.15763
?	-7.15822
xa	-7.17576
xc	-7.20138
▁he	-7.20421
ly	-7.21017
e	-7.2119
▁any	-7.2214
y	-7.22615
▁some	-7.23285
▁make	-7.23739
▁what	-7.23902
▁just	-7.26147
▁into	-7.28785
2	-7.29595
93	-7.29603
▁them	-7.29641
a	-7.29829
▁+	-7.29982
S	-7.30338
▁over	-7.30414
▁there	-7.31172
▁int	-7.31751
▁work	-7.31768
▁1	-7.33169
?\	-7.33313
▁throws	-7.35053
▁would	-7.35639
▁us	-7.36326
▁first	-7.37349
▁use	-7.37398
▁than	-7.38411
▁how	-7.38638
▁were	-7.38928
;	-7.39936
▁its	-7.40747
▁most	-7.41094
▁well	-7.41462
▁In	-7.43689
▁her	-7.44001
▁need	-7.44174
▁only	-7.44431
▁had	-7.44447
▁people	-7.44854
Exception	-7.44991
▁me	-7.4613
▁[	-7.46733
▁help	-7.48141
▁value	-7.48212
▁T	-7.49075
▁no	-7.50029
1	-7.50581
r	-7.5062
▁0	-7.5119
▁best	-7.51776
▁You	-7.52734
▁add	-7.52814
▁may	-7.5291
▁i	-7.53511
▁these	-7.53787
▁through	-7.55124
Type	-7.56129
▁very	-7.56376
▁create	-7.57638
▁&	-7.57813
▁many	-7.58001
▁two	-7.58563
▁year	-7.58652
▁home	-7.58945
▁private	-7.59789
▁find	-7.60058
▁boolean	-7.60565
▁years	-7.61201
Id	-7.62433
▁e	-7.62708
▁]	-7.63461
▁static	-7.6356
▁Test	-7.63786
▁way	-7.64607
▁2	-7.64959
ve	-7.66057
▁long	-7.6611
nI	-7.67373
th	-7.67813
ll	-7.68214
▁now	-7.68236
▁see	-7.68517
▁know	-7.68788
▁day	-7.68975
▁after	-7.69316
▁good	-7.69793
▁should	-7.70189
▁name	-7.70662
▁test	-7.71854
▁If	-7.71909
▁==	-7.72141
▁said	-7.72649
▁where	-7.73243
▁back	-7.73552
▁great	-7.73694
▁information	-7.73897
▁take	-7.74558
Name	-7.75045
▁want	-7.75362
▁class	-7.75933
▁S	-7.77779
▁business	-7.78296
▁3	-7.78665
▁here	-7.78872
▁:	-7.79592
▁service	-7.79934
3\	-7.80248
in	-7.80764
xb	-7.82034
▁used	-7.82946
▁right	-7.84536
▁such	-7.84552
o	-7.84813
▁data	-7.84827
▁much	-7.85213
es	-7.86209
▁made	-7.86733
▁even	-7.87111
▁while	-7.8956
▁could	-7.90128
▁before	-7.90348
b	-7.90546
al	-7.90789
▁she	-7.91058
▁high	-7.91868
▁available	-7.92069
▁last	-7.92101
▁life	-7.92682
▁free	-7.93582
▁result	-7.93703
▁go	-7.93858
A	-7.94227
▁each	-7.9471
▁List	-7.94928
D	-7.94979
▁world	-7.95907
i	-7.96193
▁Object	-7.96313
▁C	-7.96357
▁because	-7.96653
▁He	-7.97291
▁true	-7.9744
0\	-7.99414
▁being	-7.99527
3	-7.99696
▁around	-8.00279
▁E	-8.01034
▁own	-8.01365
▁those	-8.01545
▁don	-8.01597
▁then	-8.01986
▁look	-8.02551
8	-8.02793
▁!=	-8.02825
6	-8.03043
▁love	-8.03558
▁off	-8.03732
▁part	-8.03759
▁company	-8.04175
C	-8.04641
▁next	-8.04707
▁experience	-8.04876
),	-8.05581
or	-8.05668
▁using	-8.05953
▁place	-8.06021
▁every	-8.06819
▁key	-8.07045
▁team	-8.07169
▁provide	-8.07487
▁services	-8.07729
▁try	-8.08167
▁put	-8.08776
▁5	-8.0878
▁For	-8.08787
▁B	-8.08978
▁both	-8.09746
▁4	-8.1062
▁different	-8.10635
▁start	-8.10763
xd	-8.11137
nThis	-8.11308
com	-8.11463
f	-8.11496
▁?	-8.11561
nWe	-8.12862
able	-8.13092
▁protected	-8.13301
▁10	-8.13794
nA	-8.14273
▁down	-8.14582
▁type	-8.15188
▁system	-8.15572
▁including	-8.15827
▁quality	-8.16043
▁really	-8.16084
▁family	-8.16326
▁support	-8.17293
94	-8.17374
Value	-8.17433
).	-8.17496
▁false	-8.17762
▁New	-8.17899
▁water	-8.18085
▁design	-8.18374
▁same	-8.19101
▁process	-8.1988
▁between	-8.19942
g	-8.20653
▁event	-8.21101
▁still	-8.21147
▁end	-8.2116
▁size	-8.21329
▁D	-8.21565
▁area	-8.2162
▁top	-8.21937
▁number	-8.22175
4	-8.22603
ers	-8.23106
▁Exception	-8.23308
▁going	-8.23385
▁always	-8.2346
▁P	-8.23569
▁am	-8.23833
▁full	-8.23877
▁And	-8.24167
▁m	-8.2487
▁too	-8.24882
▁online	-8.25128
▁case	-8.2554
▁sure	-8.25559
▁M	-8.25595
▁think	-8.25694
I	-8.25867
▁few	-8.2593
▁during	-8.26018
▁They	-8.26023
▁come	-8.26288
▁list	-8.26367
▁under	-8.26654
▁check	-8.26659
▁K	-8.26768
▁three	-8.27739
▁offer	-8.27787
nIn	-8.28109
▁p	-8.2853
▁local	-8.28952
Context	-8.2948
▁little	-8.30903
▁else	-8.31507
▁products	-8.31921
▁today	-8.32171
▁project	-8.32227
on	-8.32914
▁must	-8.33229
▁site	-8.33683
▁V	-8.3372
▁able	-8.34016
▁give	-8.34174
▁better	-8.34354
▁without	-8.34391
▁To	-8.34506
▁show	-8.34562
▁throw	-8.35175
▁page	-8.3542
▁R	-8.35669
▁small	-8.35681
▁s	-8.35733
p	-8.35931
▁re	-8.36161
0	-8.36251
▁There	-8.36448
98	-8.36481
▁Our	-8.366
▁order	-8.3672
▁read	-8.36945
▁found	-8.37229
▁U	-8.37297
T	-8.37308
k	-8.37509
▁looking	-8.38109
▁game	-8.3896
▁call	-8.39025
▁state	-8.39121
▁working	-8.39483
▁open	-8.40039
▁things	-8.40049
to	-8.40286
▁important	-8.40529
▁website	-8.40594
B	-8.40614
▁does	-8.40961
▁within	-8.41249
▁since	-8.4178
To	-8.41879
List	-8.42306
▁G	-8.42433
▁him	-8.42455
▁build	-8.42944
▁So	-8.43137
▁keep	-8.43415
▁students	-8.43587
nIf	-8.43669
▁care	-8.43706
▁week	-8.44325
▁But	-8.44764
▁children	-8.44764
▁needs	-8.45281
l	-8.45282
Data	-8.45339
▁car	-8.45558
▁lot	-8.46067
▁As	-8.46549
▁school	-8.46685
▁run	-8.46857
▁days	-8.47012
▁current	-8.4731
▁easy	-8.47387
▁All	-8.47388
▁per	-8.47478
▁something	-8.47607
▁another	-8.47728
▁J	-8.47886
▁c	-8.4835
▁market	-8.48412
▁group	-8.48818
P	-8.49632
▁did	-8.50448
▁super	-8.50931
▁t	-8.51237
M	-8.5135
Service	-8.51459
E	-8.51616
▁making	-8.51711
▁visit	-8.5241
F	-8.52786
▁post	-8.528
▁6	-8.52936
▁o	-8.53067
▁program	-8.53086
L	-8.53202
▁book	-8.53283
▁feel	-8.5333
h	-8.53631
▁F	-8.53953
▁room	-8.54365
▁With	-8.54387
K	-8.5443
▁include	-8.54556
▁old	-8.54705
▁change	-8.54727
▁H	-8.54835
▁O	-8.55497
▁contact	-8.55594
▁community	-8.55645
▁range	-8.559
▁product	-8.559
N	-8.57116
▁health	-8.57192
▁might	-8.57316
).\	-8.57472
G	-8.57703
▁large	-8.58014
man	-8.58131
▁un	-8.58167
▁together	-8.58325
▁never	-8.58587
▁b	-8.58801
▁_	-8.5914
▁file	-8.59148
▁food	-8.59663
▁money	-8.59836
▁She	-8.59995
▁length	-8.60127
▁course	-8.60246
▁IOException	-8.60274
▁L	-8.6052
▁assertEquals	-8.60857
▁real	-8.60927
▁below	-8.61153
▁got	-8.61261
Node	-8.61496
▁field	-8.61519
▁job	-8.61911
Key	-8.61965
▁until	-8.62171
▁second	-8.62336
R	-8.62388
▁!	-8.63085
▁access	-8.63112
nIt	-8.63241
▁based	-8.63626
▁request	-8.63682
▁please	-8.64147
▁level	-8.64223
▁possible	-8.65045
▁property	-8.65051
▁N	-8.65083
▁price	-8.65101
▁line	-8.65214
W	-8.65289
▁equals	-8.65306
▁model	-8.65311
▁play	-8.65709
v	-8.66175
▁form	-8.66663
▁offers	-8.66698
▁away	-8.66704
en	-8.67005
Info	-8.67373
▁close	-8.67381
File	-8.67886
ID	-8.679
▁body	-8.68337
▁perfect	-8.68352
▁context	-8.68475
nYou	-8.6869
▁When	-8.6881
▁space	-8.68838
▁de	-8.689
▁expected	-8.69047
▁8	-8.69225
▁say	-8.6933
▁No	-8.69381
Request	-8.69417
▁20	-8.70055
X	-8.70121
▁house	-8.7047
5	-8.7078
▁7	-8.70904
▁University	-8.70915
▁again	-8.7102
▁development	-8.7108
▁side	-8.71134
▁user	-8.71291
▁industry	-8.71331
▁remove	-8.71377
▁research	-8.71512
▁Map	-8.71625
▁toString	-8.71706
Map	-8.71832
▁person	-8.72038
▁light	-8.72057
▁What	-8.72233
▁along	-8.72969
▁why	-8.73395
▁across	-8.73401
▁catch	-8.73693
▁power	-8.73701
V	-8.73932
(	-8.73999
▁video	-8.74221
▁special	-8.74398
▁often	-8.74693
Builder	-8.74772
▁comes	-8.74861
▁big	-8.74928
▁&&	-8.75134
▁live	-8.75277
▁left	-8.75372
▁double	-8.75407
▁become	-8.75505
▁features	-8.75599
7	-8.75765
▁fun	-8.7585
▁customers	-8.75963
▁options	-8.76022
Object	-8.7621
and	-8.76217
up	-8.76404
▁content	-8.76489
▁write	-8.76802
▁done	-8.77052
▁having	-8.77167
▁These	-8.77732
▁complete	-8.77953
▁against	-8.7799
▁cost	-8.78304
▁future	-8.78668
▁hard	-8.78927
▁12	-8.78936
▁hand	-8.78938
▁plan	-8.79578
▁W	-8.79755
▁f	-8.79983
▁short	-8.80016
▁learn	-8.80684
▁times	-8.80979
▁several	-8.81274
▁clear	-8.81455
Config	-8.81543
▁ensure	-8.81684
▁share	-8.81751
▁personal	-8.82058
▁music	-8.82361
▁hours	-8.82467
▁message	-8.82582
▁less	-8.82629
▁already	-8.82794
▁control	-8.82828
▁point	-8.8286
▁makes	-8.83379
▁social	-8.83463
▁city	-8.83467
▁beautiful	-8.83592
▁members	-8.83623
Response	-8.83692
▁technology	-8.83699
▁professional	-8.83875
▁v	-8.83948
▁My	-8.84016
▁append	-8.8403
▁minutes	-8.84056
id	-8.84064
▁child	-8.84189
▁thing	-8.84291
▁means	-8.84299
▁table	-8.84355
▁unique	-8.84521
Path	-8.84605
*	-8.84655
▁source	-8.84668
▁ever	-8.84779
▁map	-8.84803
▁companies	-8.85143
▁/	-8.85164
▁four	-8.85417
ic	-8.85551
▁'	-8.85726
z	-8.8579
▁That	-8.86255
▁country	-8.86279
Event	-8.86389
▁night	-8.86429
▁provides	-8.86497
▁building	-8.86532
▁getting	-8.86584
Manager	-8.86668
▁client	-8.8716
▁questions	-8.87258
ation	-8.87388
Class	-8.87393
H	-8.87526
▁results	-8.87548
▁non	-8.87878
▁season	-8.87884
▁enjoy	-8.88222
With	-8.88263
▁let	-8.88283
▁id	-8.88402
▁search	-8.88555
▁training	-8.88557
▁simple	-8.88584
▁style	-8.88607
Factory	-8.88848
▁18	-8.89104
State	-8.89144
the	-8.8927
String	-8.8953
Y	-8.89588
▁view	-8.89662
▁low	-8.9032
▁designed	-8.90361
▁enough	-8.90466
▁single	-8.90495
le	-8.90521
▁past	-8.90564
▁email	-8.90602
▁path	-8.90842
Set	-8.90843
ion	-8.91145
▁update	-8.91435
us	-8.91875
In	-8.91977
▁started	-8.92295
...	-8.92394
an	-8.92403
▁main	-8.92428
▁30	-8.92541
▁management	-8.92552
▁save	-8.92598
▁On	-8.92752
st	-8.92792
▁Re	-8.92869
J	-8.93038
▁target	-8.93105
▁response	-8.93202
▁won	-8.93203
w	-8.93205
▁version	-8.93449
▁X	-8.93487
▁At	-8.93859
▁index	-8.93863
▁date	-8.94009
▁bit	-8.94102
u	-8.94111
▁com	-8.94277
▁customer	-8.94297
▁pre	-8.95022
▁One	-8.95037
▁15	-8.95042
▁called	-8.95404
▁node	-8.95471
▁month	-8.95599
▁web	-8.9572
▁required	-8.95741
ity	-8.95882
▁staff	-8.95898
▁friends	-8.96
▁Class	-8.96089
▁office	-8.96274
▁clients	-8.96383
▁others	-8.96411
ton	-8.96501
▁choose	-8.96969
▁air	-8.96995
▁once	-8.97076
▁d	-8.97755
▁St	-8.9804
ness	-8.98434
nFor	-8.98445
▁media	-8.98508
▁living	-8.98527
▁months	-8.98562
▁store	-8.98645
▁image	-8.98719
▁entry	-8.98735
▁million	-8.98746
▁yet	-8.9915
▁performance	-8.99152
▁code	-8.99178
▁application	-8.9921
Test	-8.99398
▁Integer	-8.99435
▁white	-8.99504
▁problem	-8.99727
▁head	-8.99745
Message	-8.9981
▁everything	-8.99916
▁City	-8.9995
▁various	-9.00125
▁color	-9.00225
▁given	-9.00573
▁areas	-9.00598
▁above	-9.00715
▁story	-9.00804
▁known	-9.00806
▁series	-9.00829
▁following	-9.00939
▁9	-9.00969
co	-9.01012
▁doing	-9.01012
▁bring	-9.01179
▁assertThat	-9.01256
▁addition	-9.01368
▁report	-9.01468
▁far	-9.01667
▁pay	-9.01998
▁Do	-9.02033
▁->	-9.02046
▁phone	-9.02194
▁art	-9.02218
is	-9.02265
▁details	-9.02383
▁early	-9.02583
▁meet	-9.02593
▁front	-9.02902
▁Your	-9.0323
▁issues	-9.03232
▁due	-9.0332
▁action	-9.03367
▁org	-9.03396
▁byte	-9.03542
▁account	-9.03745
▁man	-9.03914
Element	-9.03946
For	-9.03991
▁events	-9.04221
▁least	-9.04303
▁located	-9.0444
▁receive	-9.04499
O	-9.04891
Count	-9.0526
▁buy	-9.05423
▁click	-9.05437
▁includes	-9.05508
▁n	-9.05586
▁address	-9.05603
▁doesn	-9.05641
▁women	-9.05709
Index	-9.05934
The	-9.06073
&	-9.0652
Model	-9.06609
▁example	-9.06762
."\	-9.06792
▁After	-9.06937
▁God	-9.06968
▁send	-9.07159
▁collection	-9.07215
▁School	-9.07358
▁State	-9.07371
nWhat	-9.07542
▁apply	-9.07695
▁ready	-9.0778
▁American	-9.07802
▁energy	-9.07911
▁added	-9.07967
▁original	-9.08375
▁understand	-9.08415
▁move	-9.08466
▁kind	-9.0864
ment	-9.08735
▁taking	-9.08943
▁created	-9.08965
▁item	-9.08999
▁study	-9.09216
rs	-9.09342
▁major	-9.0956
▁natural	-9.09578
▁software	-9.09605
▁How	-9.09713
▁mind	-9.0973
▁ideas	-9.09736
▁though	-9.09743
▁co	-9.09754
▁latest	-9.09814
▁hope	-9.09863
▁works	-9.10333
ry	-9.10434
▁However	-9.10466
▁input	-9.10503
▁Co	-9.10629
8\	-9.10655
▁File	-9.10767
▁took	-9.10804
▁position	-9.10804
Result	-9.10954
▁five	-9.10986
▁black	-9.10998
▁throughout	-9.11045
▁stop	-9.11047
▁location	-9.11143
▁items	-9.11184
▁fact	-9.11425
ist	-9.11452
▁came	-9.11505
▁text	-9.11588
▁further	-9.11692
am	-9.11749
▁actually	-9.11877
▁card	-9.11986
▁default	-9.12024
▁currently	-9.12045
Time	-9.12086
▁someone	-9.12159
▁security	-9.12211
▁feature	-9.12236
▁Please	-9.12374
time	-9.12405
it	-9.12427
1\	-9.12457
▁2018	-9.12469
▁didn	-9.12556
▁r	-9.1264
▁Set	-9.12683
▁java	-9.12811
▁United	-9.13014
▁app	-9.13088
▁provided	-9.13223
▁member	-9.13339
▁whole	-9.13392
▁total	-9.13424
▁history	-9.13452
And	-9.13554
▁idea	-9.13558
▁South	-9.13576
▁contains	-9.13705
▁skin	-9.14103
▁says	-9.14201
▁heart	-9.14386
▁Long	-9.14409
▁everyone	-9.14453
▁System	-9.14664
▁amount	-9.14684
▁wide	-9.14754
▁role	-9.15136
▁forward	-9.15156
▁allow	-9.15211
▁government	-9.15309
▁specific	-9.15355
nTo	-9.15618
Group	-9.15674
▁Home	-9.15675
nAs	-9.15781
▁environment	-9.15987
▁US	-9.16024
▁National	-9.16367
▁opportunity	-9.16431
▁yourself	-9.16602
▁11	-9.16692
▁base	-9.16807
▁May	-9.16929
▁An	-9.17044
▁skills	-9.17128
▁believe	-9.17144
Size	-9.17199
▁oil	-9.17258
▁needed	-9.1727
▁step	-9.17646
▁systems	-9.17665
▁etc	-9.17782
te	-9.17883
]	-9.1795
▁seen	-9.17957
▁Center	-9.18269
▁session	-9.1833
▁download	-9.18654
ie	-9.18729
▁variety	-9.18786
▁games	-9.18857
▁happy	-9.19083
▁brand	-9.19129
as	-9.19149
5\	-9.19248
▁method	-9.19265
▁Service	-9.1941
▁popular	-9.1948
▁stay	-9.19508
▁values	-9.19649
▁age	-9.19772
▁whether	-9.19774
▁record	-9.1985
▁face	-9.19861
▁thought	-9.20076
▁financial	-9.20407
nThere	-9.20418
▁Dr	-9.20428
▁either	-9.20501
▁users	-9.20543
ty	-9.2061
▁treatment	-9.20769
age	-9.20774
ar	-9.20819
▁North	-9.20825
▁insurance	-9.21365
▁equipment	-9.21366
▁format	-9.21367
out	-9.21373
▁activities	-9.21504
▁assert	-9.21563
▁later	-9.21564
▁young	-9.21572
Query	-9.21713
▁projects	-9.2173
ive	-9.21839
▁continue	-9.21853
▁choice	-9.22074
▁sales	-9.2208
4\	-9.22182
▁object	-9.22288
▁near	-9.22357
▁simply	-9.22488
▁*	-9.22631
▁learning	-9.2267
▁follow	-9.22701
▁present	-9.22782
▁providing	-9.22829
▁16	-9.22843
=	-9.22855
▁half	-9.22977
▁extra	-9.2303
▁especially	-9.23104
nOur	-9.23388
▁problems	-9.23415
line	-9.23449
ia	-9.23493
▁soon	-9.23509
▁via	-9.23564
el	-9.23619
▁additional	-9.23682
▁network	-9.23751
▁went	-9.23771
no	-9.23777
▁focus	-9.23839
▁link	-9.23866
▁turn	-9.23983
▁sale	-9.23989
ies	-9.24081
▁getName	-9.24169
▁lead	-9.2417
na	-9.24284
▁success	-9.24368
▁||	-9.24481
Resource	-9.24643
▁100	-9.24725
▁common	-9.24748
j	-9.24815
▁modern	-9.24989
▁York	-9.25242
▁built	-9.25257
▁self	-9.25304
▁ago	-9.25323
▁production	-9.25333
▁option	-9.25349
▁education	-9.25471
less	-9.25932
Configuration	-9.26117
▁individual	-9.26118
Property	-9.26119
son	-9.26256
▁kids	-9.26266
Field	-9.2629
▁World	-9.2641
▁paper	-9.26436
From	-9.26574
▁knowledge	-9.26719
▁strong	-9.2685
▁running	-9.27028
▁issue	-9.27063
▁g	-9.27124
▁summer	-9.27291
://	-9.27332
▁law	-9.27483
▁quite	-9.27506
Item	-9.27518
▁increase	-9.27777
Provider	-9.27779
▁Park	-9.27877
▁allows	-9.27909
▁third	-9.28032
▁film	-9.28085
▁UK	-9.28107
▁solutions	-9.28172
ine	-9.28227
▁materials	-9.28309
▁almost	-9.28412
nWhen	-9.28525
▁standard	-9.28532
▁April	-9.28666
▁among	-9.28728
▁taken	-9.28876
▁cover	-9.28881
Client	-9.28926
▁kitchen	-9.29047
▁easily	-9.2905
▁coming	-9.29075
▁inside	-9.29106
land	-9.29412
▁blog	-9.29422
▁++	-9.295
▁held	-9.29548
▁County	-9.29741
▁interest	-9.29807
▁practice	-9.29841
▁builder	-9.29859
Table	-9.29966
▁anything	-9.30003
▁rest	-9.30032
▁purchase	-9.30084
▁box	-9.30115
▁amazing	-9.30136
▁travel	-9.30167
▁rate	-9.30287
▁clean	-9.30417
▁instanceof	-9.30481
▁writing	-9.30536
▁deal	-9.30633
▁party	-9.30704
▁sub	-9.30787
est	-9.30889
▁outside	-9.30891
▁fire	-9.31098
▁leave	-9.31108
▁hair	-9.31324
▁safe	-9.31388
ant	-9.31452
▁Day	-9.3147
▁leading	-9.31542
ne	-9.31724
Status	-9.31848
▁percent	-9.32054
▁included	-9.3214
▁solution	-9.3226
▁received	-9.32429
▁drive	-9.3251
▁reason	-9.32759
▁favorite	-9.32794
ra	-9.32854
▁match	-9.32917
▁marketing	-9.32958
▁review	-9.33083
10	-9.3315
▁element	-9.33413
▁Group	-9.33453
▁international	-9.33453
▁human	-9.33515
at	-9.33534
▁custom	-9.33653
▁select	-9.33676
▁changes	-9.33678
▁period	-9.34084
▁medical	-9.34102
▁ways	-9.34142
▁handle	-9.34215
▁potential	-9.34402
▁storage	-9.34439
▁copy	-9.34467
▁50	-9.34486
▁parse	-9.34529
▁cut	-9.34611
▁pretty	-9.34689
▁floor	-9.34781
▁2019	-9.34879
▁recently	-9.34943
▁points	-9.35066
▁material	-9.35073
▁fit	-9.35102
Handler	-9.35134
By	-9.35322
▁break	-9.35375
▁l	-9.35389
▁recent	-9.35475
▁obj	-9.35615
▁improve	-9.35652
▁query	-9.35658
ling	-9.35731
▁credit	-9.3581
▁14	-9.35855
▁computer	-9.35869
▁nice	-9.35877
▁fast	-9.35893
et	-9.36044
▁release	-9.36074
▁takes	-9.36213
▁tell	-9.36275
▁related	-9.36305
▁shows	-9.36415
▁highly	-9.36429
▁risk	-9.36571
▁West	-9.36656
▁excellent	-9.36714
▁ask	-9.36746
▁24	-9.36815
▁mobile	-9.37153
▁growth	-9.37171
▁types	-9.37331
▁parent	-9.37355
▁however	-9.37368
▁parts	-9.37493
▁bar	-9.37555
▁photo	-9.37621
▁25	-9.37637
year	-9.3772
▁tools	-9.37736
▁matter	-9.37794
+	-9.37797
▁resource	-9.37816
▁reading	-9.37836
ary	-9.38066
one	-9.38168
▁filter	-9.38292
▁meeting	-9.38303
▁impact	-9.38406
▁behind	-9.38413
based	-9.38593
▁question	-9.38773
▁effective	-9.38803
▁quickly	-9.38916
▁|	-9.3896
▁student	-9.39189
▁weeks	-9.39256
nSo	-9.39299
▁March	-9.39331
▁join	-9.39491
▁images	-9.39516
ian	-9.3953
ley	-9.39676
▁usually	-9.39703
U	-9.3971
Of	-9.39805
▁Here	-9.39808
▁device	-9.3985
▁according	-9.39857
▁photos	-9.39877
▁likely	-9.39902
▁San	-9.39945
xae	-9.40053
User	-9.40083
▁cannot	-9.40135
▁safety	-9.40161
▁trying	-9.40248
▁digital	-9.40414
▁win	-9.40446
▁global	-9.40536
▁programs	-9.40619
▁By	-9.40679
▁picture	-9.40711
▁posted	-9.40752
▁goal	-9.40885
▁cause	-9.40912
▁looks	-9.40944
▁De	-9.41018
Z	-9.41061
▁19	-9.41077
um	-9.41269
▁red	-9.41318
▁task	-9.41394
▁Free	-9.41396
▁career	-9.41543
▁resources	-9.41797
▁lower	-9.42177
Impl	-9.42251
▁general	-9.42366
▁prices	-9.42406
▁count	-9.42489
▁couple	-9.42577
go	-9.42731
de	-9.42982
▁High	-9.42994
▁From	-9.43159
▁road	-9.43227
▁Get	-9.43262
▁worked	-9.43288
▁policy	-9.43292
▁properties	-9.4331
▁stream	-9.43321
Entity	-9.43358
▁wanted	-9.43419
▁door	-9.43465
▁told	-9.4351
▁piece	-9.43657
mm	-9.43669
▁longer	-9.43684
▁print	-9.43708
of	-9.43721
▁La	-9.43747
@	-9.43869
▁hot	-9.43881
▁vehicle	-9.44022
▁anyone	-9.44032
▁walk	-9.44073
▁higher	-9.4412
▁entire	-9.44123
▁Data	-9.4417
▁Collection	-9.44283
▁article	-9.44304
▁17	-9.44329
▁lives	-9.44345
▁daily	-9.44415
Entry	-9.44425
▁average	-9.44427
▁server	-9.44441
▁requirements	-9.44482
▁j	-9.4449
▁board	-9.44517
▁Now	-9.44527
▁Be	-9.44566
▁House	-9.4464
▁Not	-9.44664
ro	-9.44784
▁patients	-9.44785
▁morning	-9.44917
▁Friday	-9.45019
▁center	-9.45092
▁plans	-9.45299
ta	-9.45317
▁tax	-9.45351
▁certain	-9.45412
▁...	-9.45529
▁fresh	-9.45618
▁sound	-9.45709
▁wall	-9.45943
▁--	-9.45944
nHow	-9.45964
ur	-9.46177
▁probably	-9.46221
▁multiple	-9.46365
Filter	-9.464
▁status	-9.46403
▁track	-9.46405
▁fully	-9.46417
ter	-9.46433
▁John	-9.46476
▁chance	-9.46492
Version	-9.46627
▁planning	-9.46664
▁talk	-9.46733
▁costs	-9.46842
ch	-9.46944
▁six	-9.47349
▁subject	-9.47368
▁13	-9.47392
%	-9.47466
▁commercial	-9.47481
ce	-9.47509
▁connection	-9.47622
▁benefits	-9.47648
▁weight	-9.47762
▁States	-9.47791
▁ability	-9.47821
▁men	-9.4784
▁Of	-9.47927
▁finally	-9.47977
▁Google	-9.48124
▁w	-9.48154
▁International	-9.48227
▁national	-9.48285
ca	-9.48515
▁directly	-9.48551
Instance	-9.48631
▁TV	-9.48664
▁machine	-9.4867
▁approach	-9.48734
▁develop	-9.48738
▁Some	-9.48815
be	-9.48859
▁conditions	-9.48897
▁wood	-9.48981
▁town	-9.48985
▁function	-9.49005
ting	-9.49203
Code	-9.49219
▁watch	-9.49219
▁begin	-9.49283
▁organization	-9.49309
▁consider	-9.49334
▁require	-9.49437
▁answer	-9.49452
il	-9.49668
▁Can	-9.49743
▁similar	-9.50288
▁2017	-9.50582
▁max	-9.50707
▁word	-9.50769
▁load	-9.50778
▁unit	-9.50784
▁mean	-9.50864
▁tool	-9.50895
▁particular	-9.50899
▁necessary	-9.50988
▁Inc	-9.51023
Listener	-9.51117
nS	-9.51203
▁June	-9.51269
ate	-9.51275
▁expect	-9.5135
▁host	-9.51451
▁America	-9.51483
▁traditional	-9.51533
▁green	-9.51558
org	-9.51621
▁involved	-9.51727
▁Z	-9.51802
▁words	-9.51824
▁multi	-9.51921
▁fine	-9.51937
▁construction	-9.51961
▁sign	-9.51972
▁His	-9.52038
test	-9.52051
▁trip	-9.52168
▁offering	-9.52367
▁rather	-9.5237
▁late	-9.52425
▁bad	-9.5246
▁London	-9.52462
▁Assert	-9.52527
▁Or	-9.52716
▁applications	-9.52787
▁region	-9.52849
▁businesses	-9.52852
30	-9.52944
▁instance	-9.53239
▁interested	-9.53453
▁reach	-9.53517
▁gives	-9.53569
▁books	-9.53632
▁India	-9.53683
▁players	-9.53687
▁heat	-9.53735
▁Saturday	-9.53763
▁gift	-9.53779
▁Go	-9.53837
▁Pro	-9.54094
▁successful	-9.54375
▁selection	-9.5438
ul	-9.54508
Error	-9.54601
▁Sunday	-9.55153
ized	-9.55278
▁While	-9.55292
Source	-9.55326
▁wait	-9.55458
▁active	-9.55587
▁section	-9.55606
Text	-9.55637
▁giving	-9.55656
▁opportunities	-9.55766
▁Black	-9.55854
▁display	-9.55873
▁finish	-9.55891
▁wedding	-9.55983
la	-9.56099
▁playing	-9.56267
▁round	-9.56333
ma	-9.56364
me	-9.56369
day	-9.56449
▁screen	-9.56475
▁Just	-9.56709
▁getValue	-9.56717
▁error	-9.56719
On	-9.56723
▁info	-9.56753
▁friend	-9.56777
▁config	-9.56868
▁upon	-9.56914
▁creating	-9.56928
▁extends	-9.56981
▁40	-9.57162
20	-9.57179
Q	-9.57204
ED	-9.57295
Action	-9.57408
."	-9.57408
▁Bar	-9.57424
▁pictures	-9.57458
▁condition	-9.5755
▁levels	-9.57672
▁difficult	-9.57702
▁platform	-9.57829
▁groups	-9.57882
Utils	-9.57908
▁decision	-9.5791
▁Builder	-9.58041
All	-9.58121
▁shop	-9.58175
▁legal	-9.58185
▁English	-9.58221
▁hit	-9.58224
▁output	-9.58285
▁sense	-9.58419
ir	-9.58507
Server	-9.58552
▁touch	-9.5861
Store	-9.58661
ri	-9.58739
by	-9.58743
▁attention	-9.58866
▁nothing	-9.58887
▁asked	-9.58924
▁developed	-9.58948
▁glass	-9.58998
▁quick	-9.59009
▁actual	-9.59015
▁countries	-9.59067
▁Health	-9.59201
▁helps	-9.59264
▁eye	-9.59308
nWith	-9.59332
▁log	-9.59451
▁parents	-9.59498
▁language	-9.59606
▁window	-9.5961
Properties	-9.59663
▁delete	-9.59694
▁apache	-9.59725
▁employees	-9.5988
▁Christmas	-9.59919
▁ArrayList	-9.59935
nd	-9.5995
Method	-9.59951
▁healthy	-9.60039
▁regular	-9.60117
Cache	-9.60313
▁player	-9.60369
ism	-9.6048
▁huge	-9.60566
▁Don	-9.60614
▁hold	-9.60649
▁Car	-9.60707
▁hotel	-9.60719
▁serve	-9.60727
▁seems	-9.60842
▁previous	-9.60932
▁plant	-9.60962
▁released	-9.61167
▁stock	-9.61257
▁guide	-9.61259
▁worth	-9.61263
▁repair	-9.61269
Definition	-9.613
Page	-9.61312
▁January	-9.61407
name	-9.61451
▁cool	-9.61453
▁k	-9.61465
▁spend	-9.61492
▁China	-9.61557
old	-9.6157
▁wish	-9.61571
▁recommend	-9.61608
▁term	-9.61717
▁October	-9.61722
▁wonderful	-9.61949
▁register	-9.62181
▁decided	-9.62227
▁experienced	-9.62329
ful	-9.62336
▁Business	-9.62735
▁cash	-9.62821
▁Department	-9.62919
▁execute	-9.6292
▁highest	-9.63137
▁budget	-9.63169
ent	-9.63186
▁pool	-9.63378
▁row	-9.63394
▁ground	-9.63434
▁pick	-9.63462
▁written	-9.6354
▁families	-9.63633
▁growing	-9.63838
▁stand	-9.64042
nAnd	-9.64059
▁terms	-9.6408
▁instead	-9.64096
▁y	-9.64152
Reference	-9.64218
▁July	-9.64295
Date	-9.64343
▁speed	-9.64372
▁existing	-9.64373
▁weekend	-9.64431
▁completely	-9.64434
▁benefit	-9.64455
ING	-9.64472
▁moment	-9.64479
os	-9.64501
▁land	-9.64562
▁September	-9.64565
▁College	-9.64694
▁assertTrue	-9.64708
▁loss	-9.64772
▁title	-9.64806
▁Al	-9.64813
▁files	-9.64813
▁fall	-9.6498
▁block	-9.64983
▁Air	-9.65012
▁stage	-9.65034
▁Facebook	-9.65156
▁schedule	-9.65168
▁hour	-9.65311
Session	-9.65314
▁engine	-9.65315
▁21	-9.65401
ating	-9.65404
▁button	-9.65412
▁interesting	-9.65414
▁owner	-9.65441
▁furniture	-9.65881
▁goals	-9.65983
▁starting	-9.65999
▁Design	-9.66
nHe	-9.66013
▁2016	-9.66166
,"	-9.66192
Array	-9.66208
▁delivery	-9.66232
View	-9.66254
▁pain	-9.66298
ish	-9.66448
▁grow	-9.66581
Stream	-9.66632
▁lost	-9.6666
ol	-9.66712
▁Best	-9.66756
▁goes	-9.66788
▁itself	-9.66964
▁remember	-9.66988
▁ideal	-9.6703
▁Boolean	-9.67069
end	-9.6709
▁cases	-9.67108
82\	-9.6712
▁Services	-9.67125
▁reduce	-9.67189
▁published	-9.67271
▁positive	-9.67331
▁Street	-9.67355
▁Node	-9.67428
▁hear	-9.67473
do	-9.67494
▁activity	-9.67719
▁sites	-9.67893
Expression	-9.67901
▁dog	-9.67923
▁creative	-9.67923
▁estate	-9.67973
▁note	-9.68219
▁ex	-9.68367
▁themselves	-9.68421
▁saw	-9.68545
pm	-9.68578
▁Web	-9.68596
▁completed	-9.68791
▁Monday	-9.68826
No	-9.68839
nAll	-9.68904
▁pages	-9.69002
▁firm	-9.69092
▁relationship	-9.69208
▁East	-9.69231
▁sb	-9.69265
▁tree	-9.69302
▁investment	-9.69374
nBut	-9.69386
▁fill	-9.69387
▁President	-9.69388
▁limited	-9.69497
6\	-9.69532
Component	-9.69652
xbf	-9.69673
▁getClass	-9.6968
▁More	-9.69726
▁hands	-9.6978
NAME	-9.69801
▁#	-9.69942
▁moving	-9.69969
▁analysis	-9.70043
xbd	-9.70092
▁weather	-9.70152
ance	-9.70232
▁basic	-9.70479
▁comfortable	-9.70524
▁California	-9.70536
▁verify	-9.70571
▁advice	-9.70596
▁Type	-9.70634
▁Le	-9.70665
▁Also	-9.70715
▁individuals	-9.70734
▁effect	-9.71136
▁wear	-9.71139
▁selected	-9.71233
▁announced	-9.71328
▁welcome	-9.71417
▁supply	-9.71457
nAt	-9.7153
Token	-9.71633
▁""	-9.71675
▁damage	-9.71719
▁hashCode	-9.7183
▁gas	-9.71928
>	-9.71964
▁steel	-9.71972
▁Q	-9.7201
▁physical	-9.72109
Util	-9.72126
▁November	-9.72159
▁significant	-9.72216
▁h	-9.72253
Options	-9.7236
▁setting	-9.72361
▁accept	-9.72373
▁Red	-9.72377
▁December	-9.72521
▁baby	-9.72529
▁nature	-9.72994
7\	-9.7304
im	-9.7307
▁towards	-9.73196
▁warm	-9.73254
▁Art	-9.73353
▁movie	-9.73388
▁isEmpty	-9.73406
Number	-9.73467
▁understanding	-9.73468
▁tour	-9.73503
▁exactly	-9.73554
▁annual	-9.73776
▁regarding	-9.73835
▁August	-9.73907
▁gold	-9.73908
▁switch	-9.73969
▁largest	-9.73975
ization	-9.73989
▁White	-9.73999
▁blue	-9.74041
▁User	-9.74128
▁helping	-9.74144
▁offered	-9.74149
▁plus	-9.74351
ah	-9.74395
▁enter	-9.74426
▁deep	-9.74453
▁soft	-9.74677
▁garden	-9.74683
▁myself	-9.74741
field	-9.74747
▁Mar	-9.74787
▁former	-9.74808
[	-9.74809
▁internet	-9.74822
▁pressure	-9.74957
▁devices	-9.75035
for	-9.751
▁charge	-9.75142
Task	-9.75189
▁Windows	-9.75241
▁direct	-9.75255
▁driver	-9.75276
▁Mr	-9.75319
▁Green	-9.75372
▁con	-9.75423
Connection	-9.75523
▁document	-9.75592
▁deliver	-9.75598
▁Man	-9.75732
q	-9.75795
▁essential	-9.75805
▁bed	-9.75877
un	-9.75911
▁began	-9.75962
▁sun	-9.75972
▁trade	-9.76
▁led	-9.76017
Mode	-9.7609
▁easier	-9.76395
ted	-9.76411
▁sometimes	-9.76472
▁places	-9.76622
▁news	-9.76632
▁definitely	-9.76646
▁First	-9.76696
ous	-9.76746
way	-9.76781
li	-9.76817
▁Y	-9.76859
▁February	-9.76879
▁loved	-9.7693
▁band	-9.76956
▁sell	-9.77063
▁coffee	-9.77093
▁Call	-9.77134
▁sent	-9.77212
per	-9.77274
▁en	-9.77303
▁experts	-9.77382
Address	-9.77421
▁cleaning	-9.77495
▁rates	-9.77506
▁60	-9.77548
Ref	-9.77563
ak	-9.77588
▁provider	-9.77759
▁Association	-9.77779
▁Great	-9.77823
▁entity	-9.78032
▁dry	-9.78035
▁statement	-9.78173
Update	-9.78213
▁master	-9.78388
▁payment	-9.78453
rd	-9.78484
▁bottom	-9.78492
▁achieve	-9.78548
io	-9.78769
▁complex	-9.78783
▁Office	-9.78791
▁difference	-9.78847
▁thinking	-9.78877
se	-9.78909
▁degree	-9.78916
ize	-9.7894
▁professionals	-9.79045
xef	-9.79125
▁character	-9.79157
Record	-9.79184
▁patient	-9.79231
▁surface	-9.79375
▁protection	-9.79395
▁Club	-9.79409
▁operation	-9.79438
15	-9.79439
▁Internet	-9.79532
▁prepare	-9.79538
▁feet	-9.79545
▁Canada	-9.79591
Attribute	-9.7971
Re	-9.79743
▁journey	-9.79765
▁schools	-9.7978
▁array	-9.7982
wood	-9.79908
▁Check	-9.79983
▁became	-9.80056
▁sports	-9.80114
nOn	-9.80138
Url	-9.80261
▁root	-9.8043
▁death	-9.8046
▁collect	-9.80609
▁court	-9.80768
As	-9.80918
▁google	-9.81034
▁overall	-9.81156
▁played	-9.81168
80	-9.81244
▁stories	-9.8126
▁homes	-9.81274
op	-9.81293
▁dedicated	-9.81306
▁blood	-9.81328
▁avoid	-9.81329
lo	-9.81503
▁classic	-9.81579
▁situation	-9.8163
▁purpose	-9.81679
off	-9.81683
sh	-9.81758
▁Resource	-9.81761
84\	-9.81791
▁holiday	-9.81857
▁Australia	-9.81958
▁Con	-9.8199
▁http	-9.81995
▁drop	-9.82015
▁culture	-9.82075
▁Path	-9.82109
▁writer	-9.82154
▁command	-9.82334
▁eat	-9.82341
▁cold	-9.82466
▁trust	-9.82518
▁perform	-9.82525
▁Most	-9.82556
▁connect	-9.82589
▁pieces	-9.82618
▁pass	-9.82621
ER	-9.82675
▁shopping	-9.82692
▁auto	-9.82709
▁friendly	-9.82806
Document	-9.82944
▁assist	-9.82994
▁produce	-9.83102
▁metal	-9.83136
▁advanced	-9.8315
ni	-9.83188
da	-9.8322
▁considered	-9.83239
▁sort	-9.83253
nC	-9.8329
▁colors	-9.83345
ner	-9.83374
▁campaign	-9.83386
▁Good	-9.83417
▁truly	-9.83515
▁thanks	-9.83649
▁Each	-9.83756
▁Let	-9.83781
▁lots	-9.83803
▁sold	-9.8383
▁bathroom	-9.83892
▁shape	-9.83933
▁Open	-9.84085
mo	-9.84139
▁installation	-9.84207
▁European	-9.84232
"\	-9.84279
▁challenge	-9.84285
▁beginning	-9.84295
nAfter	-9.843
▁author	-9.84431
nPlease	-9.84433
ana	-9.84549
▁Company	-9.84561
▁protect	-9.84654
▁Council	-9.84723
▁finished	-9.8479
▁cards	-9.84827
Bean	-9.84841
▁opening	-9.84995
▁wine	-9.85003
Line	-9.85017
▁sleep	-9.85064
▁string	-9.85078
▁comfort	-9.85091
Column	-9.85125
ise	-9.85132
▁spent	-9.85152
▁outdoor	-9.85286
con	-9.85345
▁column	-9.85428
▁sweet	-9.85464
▁feeling	-9.85551
▁mock	-9.85567
▁basis	-9.85651
▁driving	-9.85671
▁college	-9.85679
ally	-9.85679
▁lines	-9.85686
▁lang	-9.85723
side	-9.85792
▁paid	-9.85807
▁effort	-9.85878
Command	-9.85929
▁2015	-9.85969
▁Her	-9.8597
▁paint	-9.85978
▁reports	-9.8609
▁Time	-9.86158
▁wrong	-9.86178
▁elements	-9.86235
▁min	-9.86285
▁comment	-9.86313
ee	-9.86345
▁happen	-9.86354
▁Europe	-9.86443
▁args	-9.86512
▁Click	-9.86602
Function	-9.86661
▁Lake	-9.86728
▁served	-9.86844
▁Thursday	-9.86974
▁Many	-9.87001
▁Board	-9.87083
▁models	-9.87154
▁secure	-9.87234
Not	-9.8744
▁THE	-9.87518
▁tips	-9.87595
="	-9.87596
▁maintenance	-9.87766
▁strategy	-9.87775
▁reviews	-9.87865
▁club	-9.87983
▁seem	-9.87984
▁fan	-9.87986
▁replace	-9.88029
9\	-9.88095
▁official	-9.88139
▁facilities	-9.8814
▁::	-9.88157
▁flow	-9.88179
▁winter	-9.88201
▁teams	-9.88215
▁powerful	-9.88321
▁guests	-9.88324
▁install	-9.88351
▁background	-9.88415
▁pattern	-9.88434
▁Optional	-9.88502
▁22	-9.88502
▁Are	-9.88551
net	-9.88564
▁responsible	-9.8859
▁package	-9.88686
Metadata	-9.88726
▁listed	-9.88745
▁"/	-9.88748
▁\'	-9.88798
Template	-9.88853
▁channel	-9.88871
▁police	-9.88909
▁race	-9.88993
▁Road	-9.89068
▁dis	-9.89182
▁IllegalArgument	-9.8931
▁sea	-9.89316
my	-9.89435
▁beyond	-9.89438
▁frame	-9.89471
▁Management	-9.89501
▁synchronized	-9.89506
▁rights	-9.89559
▁core	-9.89563
Package	-9.89641
▁views	-9.8973
▁mid	-9.8975
▁partner	-9.89844
▁manage	-9.89879
▁Mo	-9.89915
▁Thanks	-9.8993
▁miles	-9.89968
▁technical	-9.90089
▁named	-9.90145
▁Date	-9.90191
▁exchange	-9.90238
▁brought	-9.9037
▁camera	-9.90371
▁disease	-9.90422
▁changed	-9.90429
▁Post	-9.90455
▁ball	-9.90476
▁Add	-9.90695
▁Tuesday	-9.9077
▁cell	-9.90802
▁bag	-9.90897
▁useful	-9.90929
▁manager	-9.91029
ad	-9.91092
▁uses	-9.91127
house	-9.9113
Log	-9.91146
▁Double	-9.91223
▁star	-9.91228
▁bank	-9.91294
12	-9.91389
▁Me	-9.91432
▁tried	-9.91444
▁steps	-9.91449
▁structure	-9.91487
32	-9.91506
▁buffer	-9.91557
▁discuss	-9.91566
▁isn	-9.91622
▁stuff	-9.91742
▁io	-9.91753
▁classes	-9.91763
▁generate	-9.9191
▁taste	-9.91962
▁appropriate	-9.91963
ard	-9.91997
▁compare	-9.92068
▁ones	-9.9209
▁component	-9.9216
▁category	-9.92223
over	-9.92253
▁artist	-9.92296
den	-9.92319
▁Pre	-9.92374
▁ahead	-9.9238
▁anti	-9.92385
▁Project	-9.92387
▁sharing	-9.92425
▁port	-9.9247
▁extremely	-9.92476
▁menu	-9.92552
▁allowed	-9.92561
▁prevent	-9.92611
▁park	-9.92629
▁protobuf	-9.92641
▁normal	-9.92776
▁Wednesday	-9.92786
Format	-9.92839
port	-9.9284
▁Make	-9.92864
▁dark	-9.92908
pe	-9.92996
▁mission	-9.9303
set	-9.93048
▁mother	-9.93058
▁beauty	-9.9311
▁spot	-9.93209
▁mix	-9.93249
ite	-9.93249
▁heard	-9.93307
▁rich	-9.93419
▁description	-9.93459
pa	-9.93509
▁progress	-9.93617
▁immediately	-9.93671
▁primary	-9.93673
▁covered	-9.93684
Descriptor	-9.93701
if	-9.93749
ville	-9.93833
ham	-9.93858
▁IT	-9.93864
▁updated	-9.93907
▁Then	-9.94004
ler	-9.94026
▁gave	-9.94117
bar	-9.94138
▁nearly	-9.94141
nMy	-9.94177
▁standards	-9.94203
▁pro	-9.94288
▁correct	-9.94323
▁lock	-9.94411
▁shared	-9.94436
▁initial	-9.94566
▁template	-9.94646
▁woman	-9.94672
▁song	-9.94704
▁established	-9.94731
▁spring	-9.94805
If	-9.94875
▁balance	-9.94878
▁maintain	-9.94908
Parameter	-9.94915
▁award	-9.94939
nDo	-9.94963
▁born	-9.95007
Row	-9.95065
▁associated	-9.95119
▁loan	-9.95243
au	-9.95255
Or	-9.95266
▁evening	-9.95281
▁prior	-9.95341
▁reported	-9.95361
▁init	-9.95447
▁reference	-9.95464
▁determine	-9.95496
▁database	-9.95513
▁cancer	-9.95621
▁methods	-9.95645
25	-9.95658
▁felt	-9.957
▁bedroom	-9.95707
▁Table	-9.95793
xad	-9.958
▁Bank	-9.95875
▁explore	-9.95888
▁Well	-9.96044
▁River	-9.96131
men	-9.96134
▁See	-9.96148
▁designs	-9.96167
6.	-9.96206
▁Thank	-9.96217
▁billion	-9.96369
▁onto	-9.96453
▁panel	-9.96531
▁Once	-9.96566
▁la	-9.96571
▁increased	-9.9663
▁reasons	-9.96663
▁plastic	-9.96677
▁eyes	-9.96814
▁traffic	-9.96833
▁El	-9.9685
Access	-9.9686
▁beach	-9.96992
▁Water	-9.97036
▁effects	-9.97102
▁album	-9.97199
90	-9.97274
▁links	-9.974
▁internal	-9.97411
▁fans	-9.97424
▁getId	-9.97461
▁communication	-9.97478
▁war	-9.97478
▁carry	-9.97507
▁profile	-9.97512
▁validate	-9.97534
ha	-9.97566
Container	-9.97572
term	-9.97586
Values	-9.97614
free	-9.97635
▁maybe	-9.97711
▁rule	-9.9774
nE	-9.97744
▁economic	-9.97745
back	-9.97787
▁Love	-9.97789
▁foot	-9.97803
ina	-9.9788
▁ten	-9.97945
▁helped	-9.97952
ka	-9.97988
Content	-9.98008
▁rooms	-9.98008
▁advantage	-9.98013
▁contract	-9.98018
▁url	-9.98071
▁teaching	-9.98073
▁competition	-9.98076
▁shown	-9.98079
Order	-9.98179
▁solid	-9.98203
▁numbers	-9.9821
▁organizations	-9.9825
▁science	-9.98304
▁fish	-9.98325
▁Before	-9.98359
▁2014	-9.98391
▁challenges	-9.98438
▁middle	-9.98449
▁political	-9.98516
ba	-9.98539
▁techniques	-9.98576
▁expert	-9.98582
Schema	-9.98638
ence	-9.9867
11	-9.98681
▁French	-9.98805
nF	-9.98911
▁General	-9.98927
▁fashion	-9.98941
▁distance	-9.98995
▁flat	-9.99026
▁label	-9.99082
www	-9.99257
▁Bay	-9.99326
50	-9.99377
▁edge	-9.99386
Input	-9.99411
▁church	-9.9942
Is	-9.99428
▁pop	-9.9944
▁Use	-9.99499
▁ctx	-9.99527
▁Property	-9.99559
▁conference	-9.99587
▁fee	-9.99637
▁requires	-9.99735
▁fail	-9.99739
em	-9.99826
▁StringBuilder	-9.99839
Rule	-9.99844
▁Mac	-9.99845
▁cars	-9.99868
▁23	-9.99868
▁larger	-9.99933
▁Since	-9.9994
▁affordable	-9.99963
▁Washington	-10.0005
▁enable	-10.0005
▁War	-10.0012
▁director	-10.0015
nOne	-10.0023
▁famous	-10.0029
▁capacity	-10.0037
▁Program	-10.0038
▁press	-10.0043
▁topic	-10.0045
▁met	-10.0049
▁notice	-10.0053
▁rules	-10.0055
▁developing	-10.0062
▁restaurant	-10.007
Port	-10.007
bo	-10.0075
▁Director	-10.0077
▁interior	-10.0082
▁forget	-10.0083
▁Institute	-10.0088
▁score	-10.0091
▁100%	-10.0095
▁residents	-10.01
▁Year	-10.01
▁Life	-10.0107
▁mode	-10.0108
▁owners	-10.0109
▁transfer	-10.012
18	-10.012
der	-10.0122
▁particularly	-10.0123
▁communities	-10.0125
▁val	-10.013
▁Research	-10.0132
▁PC	-10.0136
Base	-10.0138
ig	-10.014
ated	-10.0147
▁David	-10.0151
▁voice	-10.0155
▁capital	-10.0156
▁greater	-10.0162
nB	-10.0164
IN	-10.0164
▁memory	-10.017
▁efforts	-10.0175
▁convert	-10.0178
▁Texas	-10.0179
▁serious	-10.0199
▁Super	-10.02
▁stone	-10.0215
ang	-10.0218
Operation	-10.0219
▁testing	-10.0219
▁limit	-10.0221
▁adding	-10.0222
▁jobs	-10.0224
▁seven	-10.0225
Helper	-10.0232
▁plenty	-10.0247
▁certainly	-10.0262
▁stress	-10.0267
▁Un	-10.0271
▁proud	-10.0273
▁Blue	-10.0275
Int	-10.0279
▁dream	-10.0282
▁Field	-10.0284
Block	-10.0294
▁finding	-10.0297
▁Beach	-10.0298
▁turned	-10.03
▁factory	-10.0301
▁ice	-10.0301
▁prepared	-10.0308
▁square	-10.0316
▁supported	-10.032
ut	-10.0327
We	-10.0332
▁earlier	-10.0335
▁getInstance	-10.0349
▁visitors	-10.0355
▁names	-10.0363
▁heavy	-10.0366
ology	-10.0381
▁operations	-10.0382
ning	-10.0387
▁comments	-10.0388
nThese	-10.039
▁Top	-10.0392
Get	-10.0397
▁produced	-10.04
xac	-10.0401
▁leader	-10.0402
we	-10.0409
▁Find	-10.041
3.	-10.0414
lin	-10.0415
all	-10.0422
▁efficient	-10.0425
▁scale	-10.0433
▁u	-10.0436
so	-10.0442
▁dinner	-10.0447
▁thank	-10.0453
▁appear	-10.0459
▁dining	-10.0459
type	-10.0461
▁income	-10.0464
▁letter	-10.0467
▁$	-10.0471
▁expertise	-10.0472
ster	-10.0482
▁facility	-10.0482
Dir	-10.0489
▁Law	-10.049
Level	-10.0491
ga	-10.0492
▁innovative	-10.0496
▁moved	-10.0503
xbc	-10.0504
▁Star	-10.0512
!!	-10.0514
▁Paul	-10.0516
▁medium	-10.0527
▁tea	-10.0532
▁Even	-10.0535
▁demand	-10.0536
▁$1	-10.0538
▁waiting	-10.0542
▁exciting	-10.0547
not	-10.0559
▁detail	-10.0559
▁Church	-10.0562
▁Apple	-10.0563
▁float	-10.057
▁sugar	-10.0571
▁buying	-10.0574
▁rock	-10.0575
▁studies	-10.0575
▁Download	-10.0579
▁launch	-10.0579
▁critical	-10.0584
xbb	-10.0584
ke	-10.0586
po	-10.0594
▁cross	-10.0596
▁fantastic	-10.061
▁maximum	-10.0611
▁force	-10.062
▁saying	-10.062
▁31	-10.0622
▁Power	-10.0627
▁audience	-10.0627
▁Indian	-10.0644
▁excited	-10.0644
ator	-10.0649
▁compared	-10.065
▁cache	-10.0652
get	-10.0656
2.	-10.0662
▁www	-10.0667
▁Model	-10.0682
▁2013	-10.0689
▁keeping	-10.0696
__	-10.0726
▁combination	-10.0727
▁setup	-10.0729
▁sector	-10.0734
▁videos	-10.0737
▁roof	-10.0745
▁Security	-10.0748
di	-10.0752
▁xmlbeans	-10.0755
▁Network	-10.0758
16	-10.0759
▁states	-10.0764
▁Today	-10.0766
▁Book	-10.0766
Reader	-10.0772
▁concept	-10.0774
▁shipping	-10.0776
▁tag	-10.0776
▁treat	-10.0777
ber	-10.08
▁serving	-10.0802
▁leaders	-10.0802
▁remain	-10.0808
Read	-10.0809
000	-10.081
▁fields	-10.0814
▁presented	-10.0814
▁200	-10.0819
▁res	-10.082
▁Page	-10.0822
nNo	-10.0826
▁cast	-10.0838
▁British	-10.0845
key	-10.0848
▁artists	-10.0849
▁empty	-10.085
▁pair	-10.086
let	-10.086
▁Florida	-10.0862
▁Over	-10.0863
▁Music	-10.0864
▁son	-10.0865
▁pan	-10.0866
▁plants	-10.0873
▁vision	-10.0875
▁units	-10.0877
▁listener	-10.0879
▁parking	-10.0881
▁alone	-10.0882
▁followed	-10.0882
cThe	-10.0893
red	-10.0903
▁street	-10.0905
▁minute	-10.0906
ping	-10.0908
▁Team	-10.0915
▁Island	-10.0917
▁father	-10.0923
▁Collections	-10.0938
▁container	-10.094
ac	-10.0946
▁Act	-10.0946
uk	-10.0948
▁offset	-10.0948
▁separate	-10.0949
▁brain	-10.0949
▁installed	-10.0952
ya	-10.0952
▁salt	-10.096
▁Gold	-10.096
▁recipe	-10.0968
▁suitable	-10.0969
▁ingredients	-10.0972
▁settings	-10.0972
▁experiences	-10.0973
▁chain	-10.0982
▁cream	-10.0985
ability	-10.0989
▁wife	-10.099
▁tickets	-10.099
▁movement	-10.0991
led	-10.0994
▁Na	-10.0995
▁practices	-10.0996
1.	-10.1003
▁awesome	-10.1011
▁shot	-10.1012
▁consumer	-10.1015
Header	-10.1021
Start	-10.1025
▁Why	-10.103
▁snow	-10.1035
▁28	-10.1036
▁Nullable	-10.1047
▁reader	-10.1062
▁speak	-10.1067
Bytes	-10.1071
▁Court	-10.1072
▁straight	-10.1075
RE	-10.1086
▁Have	-10.1091
▁Africa	-10.1094
▁colour	-10.1097
▁numerous	-10.11
▁biggest	-10.1103
14	-10.1108
▁Whether	-10.1112
▁operating	-10.1113
$	-10.1119
▁act	-10.112
▁Online	-10.1121
▁centre	-10.1122
▁train	-10.1122
▁girl	-10.1123
▁Care	-10.1126
▁IN	-10.1135
▁USA	-10.1138
▁Foundation	-10.1142
cI	-10.1143
Parser	-10.1146
▁net	-10.1147
Location	-10.1149
use	-10.1151
▁strength	-10.116
▁claim	-10.1165
▁closed	-10.1169
ier	-10.1171
▁locations	-10.1177
▁Big	-10.1181
▁str	-10.1183
nP	-10.1184
▁mark	-10.1192
ey	-10.1197
▁smooth	-10.1198
▁pet	-10.1201
▁records	-10.1207
nThat	-10.121
▁temperature	-10.1214
▁resolve	-10.1222
▁domain	-10.1222
▁flowers	-10.1222
▁theme	-10.1227
▁seeing	-10.1228
▁Key	-10.123
▁gain	-10.1236
▁reliable	-10.1238
Call	-10.1238
▁Hall	-10.124
Long	-10.1241
▁changing	-10.1245
mp	-10.1247
tro	-10.1256
▁sample	-10.1258
▁husband	-10.126
▁configuration	-10.1262
▁split	-10.1264
▁26	-10.1271
▁Contact	-10.1273
ap	-10.1277
▁Public	-10.1279
▁selling	-10.1279
▁Chinese	-10.1285
▁lovely	-10.1286
64	-10.1287
▁placed	-10.1288
nAn	-10.1288
▁eight	-10.1289
▁dress	-10.1289
▁funds	-10.129
▁vehicles	-10.1301
ong	-10.1322
▁coverage	-10.1322
ft	-10.1322
▁miss	-10.1326
▁forms	-10.133
▁lack	-10.1333
▁corporate	-10.1338
▁minimum	-10.1341
▁Education	-10.1345
▁direction	-10.1346
ial	-10.1351
▁fuel	-10.1351
▁showing	-10.1352
▁windows	-10.1353
▁discover	-10.1359
▁Base	-10.1389
▁station	-10.1389
▁Community	-10.1404
▁relevant	-10.1406
▁exception	-10.1411
▁whose	-10.1419
▁automatically	-10.1427
▁arg	-10.1432
▁detailed	-10.1442
▁monitor	-10.1448
▁opened	-10.1448
▁smart	-10.1448
Spec	-10.1452
▁workers	-10.1456
▁although	-10.1456
▁thousands	-10.1458
dy	-10.1462
▁delicious	-10.1474
▁appointment	-10.1474
▁Centre	-10.1475
apos	-10.1482
▁King	-10.1492
nWhile	-10.1496
▁shower	-10.1503
▁Up	-10.1512
▁wants	-10.1516
Range	-10.1516
▁connected	-10.1536
▁Development	-10.154
▁fabric	-10.154
▁courses	-10.1551
▁remote	-10.1564
40	-10.1572
▁proper	-10.1574
▁waste	-10.1575
▁Jesus	-10.1584
▁processes	-10.1589
▁brings	-10.159
▁Mark	-10.1593
ship	-10.1594
▁department	-10.1595
17	-10.1598
Unit	-10.16
Tree	-10.1602
Job	-10.1603
▁SQLException	-10.1605
▁attend	-10.1608
▁num	-10.162
▁audio	-10.1625
▁Will	-10.1626
▁bus	-10.1629
izing	-10.1632
Enabled	-10.1636
Transaction	-10.1637
▁View	-10.1638
▁becoming	-10.1645
▁century	-10.1646
▁figure	-10.1649
▁Message	-10.1652
▁passed	-10.1653
Buffer	-10.1654
▁suit	-10.1663
▁battery	-10.1666
▁deals	-10.1666
OR	-10.1666
▁Value	-10.1682
mer	-10.1682
▁alternative	-10.1688
▁comprehensive	-10.1689
▁independent	-10.1689
▁identify	-10.169
▁hash	-10.1694
ti	-10.1696
▁older	-10.1696
▁draw	-10.1699
▁characters	-10.1699
▁exercise	-10.1701
▁decide	-10.1711
▁knew	-10.1717
13	-10.1722
▁visiting	-10.1723
▁president	-10.1725
Collection	-10.1735
▁partners	-10.1744
▁Search	-10.1745
▁2012	-10.1757
▁expression	-10.1761
▁Rock	-10.1763
▁committed	-10.1763
▁getType	-10.1763
▁assistance	-10.177
AL	-10.1777
▁dance	-10.1783
▁documents	-10.1792
▁Take	-10.1797
▁focused	-10.1801
▁respect	-10.1801
ip	-10.1807
▁corner	-10.182
▁industrial	-10.1822
like	-10.1826
24	-10.1828
Point	-10.1831
Repository	-10.1844
oc	-10.1845
▁meaning	-10.1855
Tag	-10.1861
▁delegate	-10.1867
▁Android	-10.1868
▁looked	-10.1874
▁hospital	-10.1874
▁Michael	-10.1874
▁transport	-10.1877
▁lose	-10.1879
Default	-10.1882
▁route	-10.1884
▁27	-10.1892
▁busy	-10.1895
▁kept	-10.1895
▁radio	-10.1895
▁senior	-10.1895
▁academic	-10.1897
nt	-10.1897
▁App	-10.1898
▁fight	-10.1899
▁talking	-10.19
▁stores	-10.19
ten	-10.1903
▁wasn	-10.1906
▁ride	-10.1911
▁pm	-10.1912
▁gone	-10.1914
▁Show	-10.1916
▁password	-10.1921
▁population	-10.1923
▁Room	-10.1924
▁joined	-10.193
▁wind	-10.1932
▁Central	-10.1941
▁concerns	-10.1944
▁agree	-10.1946
▁doors	-10.1948
▁combined	-10.1948
▁practical	-10.195
▁Auto	-10.1955
▁volume	-10.1965
▁replacement	-10.1969
▁drug	-10.197
ES	-10.1976
▁advance	-10.1978
MS	-10.1984
▁parties	-10.1984
▁sit	-10.1986
▁England	-10.1987
▁evidence	-10.1989
▁injury	-10.1992
▁approximately	-10.1992
▁Ar	-10.1995
▁smaller	-10.2
▁helpful	-10.2
▁transaction	-10.2005
▁central	-10.2005
▁allowing	-10.2007
Writer	-10.2011
SA	-10.2011
ical	-10.2012
▁500	-10.2014
▁runs	-10.2015
▁competitive	-10.2021
▁destination	-10.2022
▁Valley	-10.2023
ng	-10.2031
▁guarantee	-10.2032
list	-10.2033
▁leadership	-10.2033
▁components	-10.2037
▁premium	-10.2037
▁James	-10.204
▁Science	-10.2041
▁interview	-10.2049
▁Sa	-10.2057
Image	-10.2064
Policy	-10.2064
he	-10.2075
▁managed	-10.2082
nT	-10.2092
light	-10.2093
▁Amazon	-10.2096
▁recommended	-10.2097
▁cheap	-10.21
tic	-10.2103
▁ID	-10.2108
gen	-10.211
▁learned	-10.212
▁registration	-10.212
▁processing	-10.2121
▁promote	-10.2122
▁Event	-10.2125
▁properly	-10.214
▁winning	-10.2145
▁technologies	-10.2151
ide	-10.2151
▁applied	-10.2155
▁Throwable	-10.2155
Output	-10.2164
Length	-10.217
Project	-10.2171
book	-10.2179
point	-10.2183
45	-10.2186
▁sources	-10.2187
▁slow	-10.2188
▁District	-10.2195
▁enjoyed	-10.2197
▁prefer	-10.22
▁schemas	-10.2209
New	-10.2212
nHere	-10.2213
▁saving	-10.2215
her	-10.2215
▁Query	-10.2215
▁inspired	-10.222
31	-10.2221
Link	-10.2222
▁random	-10.2224
▁extensive	-10.2232
▁encourage	-10.2235
ure	-10.2237
Label	-10.2238
tor	-10.2241
▁missing	-10.225
82	-10.2257
min	-10.2258
ities	-10.2261
▁bought	-10.2267
▁agency	-10.2267
▁lighting	-10.2268
▁factors	-10.227
▁strategies	-10.2271
▁birthday	-10.2272
▁generally	-10.2272
▁filled	-10.2279
▁emergency	-10.2281
▁push	-10.2295
▁brands	-10.2295
▁library	-10.2302
▁daughter	-10.2308
▁People	-10.2309
▁himself	-10.2321
▁expensive	-10.2325
▁agent	-10.2326
ring	-10.2327
▁parameters	-10.2331
▁bill	-10.2331
ford	-10.2348
▁Twitter	-10.2351
▁fair	-10.2354
▁spread	-10.2356
▁fees	-10.2357
▁aware	-10.2357
▁shall	-10.2358
-1	-10.2359
▁Trump	-10.2364
Target	-10.2368
▁supplies	-10.2376
▁walking	-10.2379
▁relationships	-10.238
▁Action	-10.2382
nNow	-10.2384
▁thread	-10.2396
▁lunch	-10.2397
room	-10.2398
81\	-10.2408
ung	-10.241
▁resolution	-10.2412
▁registered	-10.2414
▁submit	-10.2415
4.	-10.2415
▁trees	-10.2417
Parameters	-10.2418
▁Abstract	-10.242
▁valueOf	-10.2424
▁scene	-10.243
ists	-10.2441
▁decisions	-10.2441
ho	-10.2444
▁passion	-10.2446
▁seat	-10.2452
▁rise	-10.2454
▁cloud	-10.2455
▁identity	-10.2462
▁couldn	-10.2463
work	-10.2463
19	-10.2467
▁calls	-10.2479
down	-10.2479
▁economy	-10.248
▁leaves	-10.2487
▁90	-10.2499
board	-10.2499
▁continues	-10.2506
Change	-10.2507
▁grade	-10.2509
ko	-10.2509
▁News	-10.2509
It	-10.251
▁feedback	-10.2517
les	-10.2527
Check	-10.2532
▁microsoft	-10.2536
▁ring	-10.2536
▁girls	-10.2538
▁teachers	-10.2538
▁TO	-10.2545
class	-10.2546
Position	-10.2548
▁teacher	-10.255
▁AND	-10.2551
▁drink	-10.2551
▁Plan	-10.2552
▁updates	-10.2572
▁Ltd	-10.2575
▁uri	-10.2576
▁visual	-10.2582
▁rain	-10.2587
▁Any	-10.2596
▁therefore	-10.2599
table	-10.26
▁generation	-10.2609
01	-10.2611
nBe	-10.2619
▁animals	-10.2625
Search	-10.2627
▁reality	-10.2654
▁Wall	-10.2657
▁funding	-10.2658
xbe	-10.2659
▁params	-10.2663
#	-10.2665
▁getMessage	-10.2667
ney	-10.2668
▁height	-10.2668
hi	-10.2671
▁matches	-10.2672
Form	-10.2674
▁counter	-10.2674
▁bowl	-10.2681
▁guest	-10.2686
▁peace	-10.2692
▁Arrays	-10.2699
▁retail	-10.2708
ny	-10.2711
One	-10.2715
▁wrote	-10.2717
▁songs	-10.2717
▁Image	-10.2718
Statement	-10.2719
▁chicken	-10.272
▁fix	-10.272
End	-10.272
▁iPhone	-10.272
▁failed	-10.2727
▁fruit	-10.2734
▁spending	-10.2736
▁raised	-10.2737
URI	-10.2744
▁Every	-10.2748
▁cities	-10.2749
Mapping	-10.276
▁Ha	-10.2762
▁op	-10.2765
▁flight	-10.2771
▁HD	-10.2772
▁military	-10.2775
▁suggest	-10.2782
▁leather	-10.2787
▁continued	-10.2792
well	-10.2795
cm	-10.2796
▁guys	-10.2797
▁Document	-10.2801
▁bright	-10.281
21	-10.2814
ray	-10.2822
▁perhaps	-10.2827
▁pack	-10.2827
▁Award	-10.2827
▁anywhere	-10.2827
▁Global	-10.2839
lu	-10.2842
Types	-10.2843
▁Market	-10.2852
▁Media	-10.2855
Uri	-10.2857
CA	-10.2861
Meta	-10.2862
▁URL	-10.2864
▁Hotel	-10.2868
▁Los	-10.2869
▁pull	-10.2869
▁z	-10.2873
▁Game	-10.2875
▁caused	-10.2875
▁80	-10.2877
1"	-10.2881
▁Response	-10.2886
▁micro	-10.2886
▁sounds	-10.2889
store	-10.2895
▁rental	-10.2896
▁poor	-10.2899
▁Di	-10.2903
▁leaving	-10.2906
▁Math	-10.2907
▁cheese	-10.2913
mail	-10.2917
▁environmental	-10.2917
▁Hill	-10.292
▁boat	-10.2921
▁Lu	-10.2926
▁foreign	-10.2926
35	-10.2928
▁ch	-10.2928
100	-10.293
▁commitment	-10.2931
▁gallery	-10.2932
▁mini	-10.2934
▁Because	-10.2936
▁society	-10.2937
▁confidence	-10.2941
with	-10.2942
▁increasing	-10.2946
▁SuppressWarning	-10.2947
▁CA	-10.2948
▁doctor	-10.2956
Constants	-10.2957
▁federal	-10.2958
▁Master	-10.2961
▁70	-10.2966
▁educational	-10.2966
▁Store	-10.2967
At	-10.297
▁quarter	-10.2975
▁Sea	-10.2979
head	-10.2983
▁chocolate	-10.2985
App	-10.2989
▁token	-10.2992
Color	-10.3
▁absolutely	-10.3001
▁employee	-10.3003
▁launched	-10.3004
▁delivered	-10.3005
▁feed	-10.3006
▁performed	-10.3007
RuntimeException	-10.3008
▁En	-10.3009
▁crusher	-10.3009
▁teeth	-10.301
▁remains	-10.3011
▁extension	-10.3015
ze	-10.3017
▁Ko	-10.3029
bi	-10.3033
▁Objects	-10.3041
▁hire	-10.3041
▁manufacturing	-10.3042
▁Manager	-10.3042
▁Family	-10.3047
▁Read	-10.3047
▁breakfast	-10.3047
▁discount	-10.3049
bit	-10.3051
▁surrounding	-10.3051
▁whatever	-10.3053
US	-10.3053
▁ship	-10.3055
▁electric	-10.3056
▁diet	-10.3057
▁adults	-10.3059
▁seconds	-10.3061
▁layer	-10.3062
Json	-10.3064
▁survey	-10.3066
▁importance	-10.3066
▁char	-10.3067
Channel	-10.3068
▁depending	-10.3069
▁south	-10.3073
▁restaurants	-10.3076
▁Code	-10.3083
▁websites	-10.3085
ja	-10.3087
URL	-10.3088
▁happens	-10.3089
▁external	-10.3092
▁Bo	-10.31
▁signed	-10.3103
▁PM	-10.3105
▁Christ	-10.3107
▁meal	-10.311
▁Technology	-10.3111
ware	-10.3114
▁valuable	-10.3116
▁aspects	-10.312
▁Two	-10.3122
▁32	-10.3125
Sub	-10.3128
▁providers	-10.3129
▁cultural	-10.3131
▁painting	-10.3133
sp	-10.3134
▁cutting	-10.314
▁Society	-10.3146
ors	-10.3149
ified	-10.315
▁presence	-10.315
▁watching	-10.3154
art	-10.3158
▁iterator	-10.3159
▁participants	-10.3163
▁Sun	-10.3165
IP	-10.3165
▁sql	-10.317
box	-10.3174
za	-10.318
▁cluster	-10.3182
▁valid	-10.3192
▁raw	-10.3195
Null	-10.3196
▁bike	-10.3198
▁$2	-10.3204
▁coach	-10.3204
▁json	-10.3205
▁truck	-10.3205
▁island	-10.3207
▁Microsoft	-10.3208
▁inspiration	-10.3209
Un	-10.3213
▁garage	-10.3216
▁exclusive	-10.3217
▁Museum	-10.3235
IC	-10.3238
▁cook	-10.3239
▁brown	-10.324
Empty	-10.3243
▁NOT	-10.3243
▁covers	-10.3245
▁Wood	-10.3247
▁markets	-10.3247
▁favourite	-10.3249
▁fat	-10.3255
▁drivers	-10.3257
▁respond	-10.3262
▁Server	-10.3264
▁choices	-10.3265
▁posts	-10.3267
▁Control	-10.3272
▁Ho	-10.3275
▁France	-10.3282
▁afternoon	-10.3283
▁Request	-10.3284
95	-10.33
▁Am	-10.331
nYour	-10.3311
nThanks	-10.3311
▁seek	-10.3315
▁happened	-10.3317
▁eating	-10.3321
Description	-10.3322
TYPE	-10.3325
▁edition	-10.3328
que	-10.3329
▁During	-10.3331
▁scheduled	-10.3331
▁listen	-10.3334
▁approved	-10.3334
Storage	-10.3336
▁Ben	-10.3337
▁ret	-10.3341
▁Although	-10.3354
▁Ma	-10.3359
▁participate	-10.3359
▁di	-10.3363
▁slightly	-10.3363
▁becomes	-10.3365
!!\	-10.3365
▁ticket	-10.3369
▁raise	-10.3374
▁previously	-10.3374
Report	-10.3375
▁studio	-10.3375
OS	-10.3376
▁luxury	-10.3376
ron	-10.3378
Settings	-10.3386
▁monthly	-10.3388
▁exam	-10.339
▁st	-10.3391
nRe	-10.34
▁north	-10.34
tra	-10.3404
▁cat	-10.3407
▁35	-10.341
Out	-10.3412
▁Nonnull	-10.3414
▁CD	-10.3414
nG	-10.3415
▁removed	-10.3418
nThey	-10.343
ised	-10.3432
▁enhance	-10.3432
▁Plus	-10.3432
▁football	-10.3433
▁debt	-10.344
▁ref	-10.3444
▁Government	-10.3445
▁Point	-10.3446
▁Their	-10.3453
Param	-10.3455
▁worry	-10.3456
si	-10.346
▁1,	-10.3465
ice	-10.347
▁residential	-10.3474
▁roll	-10.3475
▁iron	-10.3481
▁reset	-10.3483
▁Real	-10.3486
75	-10.3487
▁Lo	-10.3487
▁%	-10.3493
▁Ne	-10.3498
Fields	-10.3501
▁sand	-10.3504
▁trained	-10.3508
▁contain	-10.3509
▁policies	-10.3511
▁msg	-10.3514
Lock	-10.3515
mon	-10.3519
▁sheet	-10.3521
lan	-10.3525
▁Chicago	-10.3526
▁scope	-10.3526
▁Information	-10.3528
▁Who	-10.3528
▁agreement	-10.3533
▁aim	-10.3538
▁Local	-10.3539
▁fixed	-10.3555
▁fear	-10.3557
ium	-10.3558
▁rent	-10.3559
ab	-10.3561
Registry	-10.3566
▁kit	-10.3566
Queue	-10.3567
▁Live	-10.3569
▁motor	-10.3572
▁starts	-10.3573
▁Other	-10.3578
▁2010	-10.3579
▁League	-10.3587
81	-10.3588
▁sessions	-10.359
▁calling	-10.359
Identifier	-10.3592
▁Play	-10.3594
▁manual	-10.3601
▁actions	-10.3611
▁Arts	-10.3615
▁climate	-10.3615
Host	-10.3617
▁Social	-10.3618
▁efficiency	-10.3621
System	-10.3622
ile	-10.3622
70	-10.3623
▁species	-10.3625
▁engineering	-10.3626
▁featuring	-10.3626
▁doc	-10.3634
▁Hi	-10.3635
▁claims	-10.3638
▁contemporary	-10.3638
▁appreciate	-10.364
▁mail	-10.3642
▁trading	-10.3649
▁Element	-10.3652
▁secret	-10.3657
▁Ideas	-10.3658
▁cells	-10.3659
▁faster	-10.3662
▁landscape	-10.3672
ative	-10.3672
▁Spring	-10.3675
car	-10.3676
▁upper	-10.3678
▁supports	-10.3679
▁Committee	-10.3683
gi	-10.3684
▁visitor	-10.3685
▁putting	-10.3692
nM	-10.3698
▁typically	-10.3701
Write	-10.3703
▁qualified	-10.3705
▁mentioned	-10.371
▁obtain	-10.3712
code	-10.3712
▁Per	-10.3712
tain	-10.3714
▁presentation	-10.3718
▁Order	-10.3719
33	-10.3724
▁mine	-10.3727
▁nation	-10.3732
▁quote	-10.3732
▁Women	-10.3735
▁Medical	-10.3741
▁db	-10.3744
town	-10.3748
▁hearing	-10.3749
▁toward	-10.3756
▁Tree	-10.3766
▁expand	-10.3767
▁upcoming	-10.3771
Application	-10.3775
▁chair	-10.3776
▁cooking	-10.378
Handle	-10.3783
▁measure	-10.3784
▁died	-10.3787
▁Color	-10.3792
Offset	-10.3794
▁surgery	-10.3797
▁Light	-10.3802
▁2011	-10.3803
This	-10.3807
▁perfectly	-10.3811
▁Christian	-10.3814
▁Out	-10.3815
IT	-10.3815
▁appearance	-10.3815
ino	-10.3825
▁attempt	-10.3826
Create	-10.3834
ot	-10.3836
erationException	-10.3845
http	-10.3847
▁Festival	-10.3847
▁UnsupportedOp	-10.3851
▁specifically	-10.3851
SE	-10.3852
00	-10.3853
ci	-10.3859
▁thoughts	-10.3861
97	-10.3862
value	-10.3865
int	-10.3865
▁remaining	-10.3867
▁license	-10.3868
34	-10.3876
▁manner	-10.3881
▁supporting	-10.3883
▁milk	-10.3895
foo	-10.3897
sa	-10.3898
▁attack	-10.3898
mi	-10.3898
▁lights	-10.3899
LE	-10.3902
ay	-10.3903
▁stunning	-10.3906
85	-10.3906
▁Ka	-10.3907
▁ourselves	-10.3907
▁reached	-10.3913
pro	-10.3917
▁silver	-10.3923
▁Australian	-10.3926
ach	-10.3931
▁Ad	-10.394
▁golf	-10.3942
▁Food	-10.3951
Timeout	-10.3952
▁advertising	-10.3953
log	-10.3956
▁haven	-10.3959
▁Head	-10.3961
▁inter	-10.3963
Directory	-10.3967
▁purchased	-10.3967
va	-10.3969
22	-10.397
▁Configuration	-10.3975
▁extract	-10.3976
IS	-10.3977
▁programme	-10.3981
▁discussion	-10.3982
▁functions	-10.3982
▁Full	-10.3983
▁module	-10.3985
▁II	-10.399
▁recovery	-10.3994
▁dental	-10.3994
▁familiar	-10.3996
▁guess	-10.4002
▁Men	-10.4007
▁distribution	-10.4009
▁Series	-10.4009
▁incredible	-10.401
▁mental	-10.4012
ff	-10.4018
500	-10.4019
ge	-10.4023
▁Xml	-10.4028
▁AM	-10.4034
ck	-10.4042
▁creation	-10.4048
▁Ra	-10.4048
▁worldwide	-10.4048
▁Like	-10.405
▁seeking	-10.4052
▁Japan	-10.4053
▁Simple	-10.4056
▁al	-10.4056
▁sizes	-10.4058
Button	-10.4059
▁affect	-10.4062
▁housing	-10.4065
▁collaboration	-10.4071
▁negative	-10.4071
Root	-10.4071
▁electronic	-10.4082
▁bringing	-10.4091
▁cute	-10.4094
▁Fire	-10.4096
ger	-10.4096
▁truth	-10.4096
▁thus	-10.4108
▁Old	-10.4109
Pool	-10.4116
Local	-10.4117
▁Task	-10.4118
▁println	-10.4124
▁Wi	-10.4126
▁procedure	-10.4126
▁cup	-10.4128
▁accessories	-10.4131
mar	-10.4132
▁getKey	-10.4133
▁animal	-10.4135
▁featured	-10.414
▁cent	-10.4142
ps	-10.4143
▁German	-10.4143
▁consumers	-10.4144
▁otherwise	-10.4153
▁Place	-10.4159
Process	-10.416
▁sauce	-10.4161
AS	-10.4162
▁sport	-10.4162
▁regularly	-10.4165
▁shoes	-10.4167
▁measures	-10.4168
▁Grand	-10.4171
stone	-10.4174
▁lifestyle	-10.418
▁dead	-10.418
▁apartment	-10.4187
▁Kitchen	-10.4196
Account	-10.4207
▁bath	-10.421
▁Work	-10.4211
▁designer	-10.4213
▁bytes	-10.4216
▁q	-10.4219
▁topics	-10.422
▁CEO	-10.4233
▁rear	-10.4235
▁responsibility	-10.4235
▁45	-10.4244
nShe	-10.4248
▁earn	-10.4251
▁bottle	-10.4251
▁conf	-10.4251
▁Number	-10.4252
▁insert	-10.4255
▁meat	-10.4261
▁transform	-10.4264
▁birth	-10.4273
▁native	-10.4276
▁mention	-10.428
Prefix	-10.4281
▁29	-10.4286
▁Job	-10.429
▁browser	-10.4293
▁introduced	-10.4294
▁leads	-10.4301
▁notes	-10.4304
▁majority	-10.4306
▁apps	-10.4311
▁instructions	-10.4315
▁Robert	-10.4316
▁district	-10.4318
▁solar	-10.4319
▁PA	-10.4319
▁trim	-10.4321
▁farm	-10.4333
▁accurate	-10.4333
▁Union	-10.4335
▁therapy	-10.4336
ens	-10.4337
▁influence	-10.434
▁hundreds	-10.4341
Scope	-10.4342
▁calendar	-10.4343
Attributes	-10.4344
▁female	-10.4346
▁bean	-10.4346
▁metadata	-10.4348
▁holding	-10.4351
60	-10.4354
▁dogs	-10.4355
▁pos	-10.4355
27	-10.4357
▁Last	-10.4358
▁greatest	-10.4364
▁2000	-10.4364
▁isEqualTo	-10.4369
▁Brown	-10.4372
▁youth	-10.4373
▁Ga	-10.4374
but	-10.4374
▁Germany	-10.4375
nReturn	-10.4375
▁entertainment	-10.4378
▁partnership	-10.4385
▁Mc	-10.4388
▁Lord	-10.4389
92	-10.439
▁celebrate	-10.4394
TO	-10.4395
▁tab	-10.4395
▁candidates	-10.4397
▁airport	-10.4399
SP	-10.4402
▁butter	-10.4403
Role	-10.4404
▁Vi	-10.4407
▁Method	-10.4419
▁mom	-10.443
▁village	-10.443
water	-10.4437
▁messages	-10.444
xba	-10.445
▁chosen	-10.4458
▁vacation	-10.4464
Panel	-10.4466
▁cr	-10.4469
▁articles	-10.4469
▁Client	-10.4471
▁Royal	-10.4479
▁handler	-10.4486
▁RE	-10.4495
▁certified	-10.4496
Step	-10.4498
user	-10.4498
▁factor	-10.4499
▁totally	-10.4502
▁accounts	-10.4502
ru	-10.4503
▁improved	-10.4506
▁equipped	-10.4506
▁accident	-10.4512
▁consultation	-10.4514
▁wild	-10.4514
xec	-10.452
▁appears	-10.4529
Match	-10.4535
▁Multi	-10.454
▁transition	-10.4542
▁Bill	-10.4543
Def	-10.4546
▁Line	-10.4553
▁Jan	-10.4554
ries	-10.4564
▁Cup	-10.4567
nFrom	-10.4571
▁showed	-10.4571
▁layout	-10.4578
▁Json	-10.4579
▁Town	-10.4581
▁Shop	-10.4582
▁tasks	-10.4591
PA	-10.4591
▁xml	-10.4592
▁privacy	-10.4594
▁tough	-10.4594
Callback	-10.4605
Pattern	-10.4608
Loader	-10.461
mb	-10.4612
▁hosting	-10.4613
▁assertNotNull	-10.4613
CC	-10.4621
▁buildings	-10.4621
▁effectively	-10.4621
▁chat	-10.4624
▁workshop	-10.4628
ever	-10.4634
▁infrastructure	-10.4643
▁Italian	-10.4644
▁walls	-10.4644
ud	-10.4653
▁vote	-10.4658
▁mostly	-10.4659
▁African	-10.4659
▁ease	-10.466
▁owned	-10.4668
▁successfully	-10.4674
Details	-10.4683
▁script	-10.4687
▁everyday	-10.4697
Params	-10.47
ai	-10.4704
MA	-10.4709
▁aid	-10.4713
TS	-10.4713
▁Default	-10.4716
▁Card	-10.4727
DB	-10.4728
nO	-10.4729
▁trouble	-10.4734
▁manufacturer	-10.4734
▁styles	-10.4734
▁yellow	-10.4736
▁attribute	-10.4738
▁concrete	-10.4738
▁organic	-10.4748
Interface	-10.4749
▁dating	-10.4753
qui	-10.4759
▁oven	-10.4761
▁Special	-10.4763
▁beat	-10.4764
cy	-10.4767
▁Entry	-10.4787
▁George	-10.4794
▁getProperty	-10.4803
▁Japanese	-10.4807
▁logo	-10.4812
▁Ro	-10.4813
▁hardware	-10.4814
Option	-10.4816
▁trial	-10.4824
▁diverse	-10.4832
▁adventure	-10.4841
vo	-10.485
▁Watch	-10.4851
▁integrated	-10.4851
ola	-10.4851
ward	-10.4855
▁charges	-10.4855
▁Guys	-10.4857
Body	-10.4858
▁cake	-10.486
36	-10.4862
▁awareness	-10.4864
▁fund	-10.4865
08	-10.4868
▁Trust	-10.4869
▁upload	-10.4872
ST	-10.4873
ions	-10.4874
ara	-10.4874
▁tend	-10.4889
nThank	-10.4889
MP	-10.4891
▁Mary	-10.4895
▁Support	-10.4898
▁accessible	-10.4902
▁university	-10.4905
▁outstanding	-10.4912
▁Su	-10.4914
▁Canadian	-10.4918
Names	-10.4921
new	-10.4921
▁inner	-10.4922
▁adult	-10.4932
ver	-10.4934
▁pot	-10.4936
▁doubt	-10.4941
▁spirit	-10.4943
23	-10.4951
tle	-10.4965
ible	-10.4967
rate	-10.4968
▁Tom	-10.4969
▁faith	-10.4971
▁novel	-10.4973
ek	-10.4973
▁convenient	-10.4976
▁carefully	-10.4977
▁clinical	-10.4978
▁teach	-10.4983
▁buf	-10.4983
▁spaces	-10.4987
▁clone	-10.4988
▁schema	-10.4989
top	-10.4991
▁setUp	-10.4998
▁equal	-10.4999
▁bio	-10.5003
site	-10.5007
▁sp	-10.5007
nWhy	-10.5008
▁CO	-10.5013
▁Both	-10.5016
▁cap	-10.5017
▁Minister	-10.5018
▁deck	-10.5024
▁Asia	-10.5025
Endpoint	-10.5026
Iterator	-10.5031
▁realize	-10.5035
▁clearly	-10.5036
ura	-10.5036
wa	-10.5037
AC	-10.5038
▁impressive	-10.5045
▁depth	-10.5045
▁administration	-10.5045
▁foundation	-10.5047
▁winner	-10.505
pp	-10.5051
▁Library	-10.5052
Style	-10.5055
▁signs	-10.5063
▁assertFalse	-10.5066
▁searching	-10.5068
Mapper	-10.5069
▁Form	-10.507
▁col	-10.5078
▁em	-10.5087
fi	-10.5091
▁earth	-10.5094
▁removal	-10.5097
▁flexible	-10.5102
Variable	-10.5104
▁leg	-10.5104
▁quiet	-10.5106
▁OF	-10.5107
▁preparation	-10.5109
▁sc	-10.5111
▁Academy	-10.5114
▁despite	-10.512
▁ended	-10.5123
nSome	-10.5124
Profile	-10.5124
▁IP	-10.5126
83\	-10.5126
uff	-10.5129
▁explain	-10.5133
▁HashMap	-10.5138
▁innovation	-10.5139
▁InputStream	-10.5139
▁desire	-10.5141
cWe	-10.5148
ran	-10.5151
▁mouth	-10.5152
▁nine	-10.5158
▁executive	-10.5159
▁crm	-10.5161
▁conversation	-10.5161
▁wrap	-10.5164
ag	-10.5164
ik	-10.5164
▁revenue	-10.5166
▁Entity	-10.517
▁candidate	-10.5175
▁Standard	-10.5184
ki	-10.5184
▁Access	-10.5195
cl	-10.5197
▁Smith	-10.5198
RA	-10.5199
▁patterns	-10.52
Max	-10.5201
▁Application	-10.5202
▁interface	-10.5202
▁Western	-10.5204
▁houses	-10.5206
▁Du	-10.5209
▁essay	-10.5212
Execution	-10.5212
▁DEFAULT	-10.5217
Run	-10.5218
▁asking	-10.5221
▁objects	-10.5224
oo	-10.5229
▁standing	-10.5237
quality	-10.5245
▁paying	-10.525
▁Tri	-10.5253
▁Only	-10.5254
▁signature	-10.5257
▁procedures	-10.5257
▁knows	-10.5264
▁header	-10.5264
▁km	-10.5269
▁honor	-10.527
▁evaluate	-10.5274
▁carpet	-10.528
Be	-10.5281
▁cable	-10.5283
▁asList	-10.5285
▁2009	-10.5286
ita	-10.5288
▁joy	-10.5289
▁failure	-10.5292
▁officials	-10.5295
▁closely	-10.5296
▁Hospital	-10.5298
▁machines	-10.5298
▁sitting	-10.53
dis	-10.53
Adapter	-10.5302
▁Video	-10.5308
ker	-10.5312
▁camp	-10.5317
▁gorgeous	-10.5321
▁printed	-10.5324
▁>=	-10.5325
▁tile	-10.5325
Add	-10.5331
▁discovered	-10.5341
▁virtual	-10.5344
▁wire	-10.5348
Limit	-10.5349
▁powder	-10.535
▁parameter	-10.5356
tion	-10.5358
▁Start	-10.5359
▁resume	-10.5361
▁plate	-10.5361
▁Commission	-10.5362
▁wouldn	-10.5362
▁Conference	-10.5364
▁Stream	-10.5365
▁described	-10.5365
more	-10.5377
▁sum	-10.5383
▁ran	-10.5383
▁membership	-10.5383
!!!	-10.5388
▁agencies	-10.5396
▁rare	-10.5396
▁assessment	-10.5408
▁broken	-10.5408
▁Yes	-10.5408
▁dynamic	-10.5409
▁editor	-10.5409
▁boy	-10.5414
▁kinds	-10.5415
▁Ni	-10.5416
▁improvement	-10.5417
▁sides	-10.5422
▁Te	-10.5424
▁reduced	-10.5424
▁opinion	-10.5436
▁healthcare	-10.5436
▁electrical	-10.5438
▁implementation	-10.5445
▁intended	-10.5446
▁Port	-10.5446
▁trends	-10.5447
Proxy	-10.5454
▁choosing	-10.5456
hu	-10.5473
▁Garden	-10.5475
ery	-10.5479
▁keys	-10.5483
▁Name	-10.5484
▁extended	-10.5492
▁Small	-10.5495
▁nearby	-10.5495
▁exists	-10.5502
Delete	-10.5509
▁boost	-10.5513
▁meant	-10.5513
▁grown	-10.5514
▁guy	-10.5514
ala	-10.5516
▁assets	-10.5518
▁Li	-10.5524
▁holds	-10.5527
▁According	-10.5528
fer	-10.5535
▁unless	-10.5548
▁purposes	-10.5551
▁serves	-10.5552
▁getAll	-10.5554
▁Children	-10.5555
▁fourth	-10.5561
Dao	-10.5561
▁wearing	-10.5562
▁answers	-10.5563
form	-10.5563
▁End	-10.5565
ada	-10.5567
▁Function	-10.5569
Wrapper	-10.557
▁appeal	-10.5574
Engine	-10.5578
▁wheel	-10.558
▁exact	-10.5583
▁interests	-10.5586
▁exit	-10.5591
5.	-10.5592
nAccording	-10.5592
VALUE	-10.5593
▁1000	-10.5596
can	-10.5597
▁expectations	-10.56
▁stick	-10.5603
data	-10.5605
▁gear	-10.5606
Child	-10.5608
▁mountain	-10.5617
▁affected	-10.5622
Password	-10.5623
▁fitness	-10.5623
▁glad	-10.5627
▁laws	-10.5633
▁television	-10.5635
▁regional	-10.5643
▁wonder	-10.5647
▁skill	-10.5648
nBy	-10.5649
When	-10.5651
.00	-10.5659
▁recorded	-10.566
▁gifts	-10.5662
▁smile	-10.5662
▁300	-10.5662
▁Area	-10.5663
app	-10.5664
▁Back	-10.5664
▁domestic	-10.5666
▁employment	-10.5667
king	-10.5667
37	-10.5671
tin	-10.5671
▁Join	-10.5672
▁bigger	-10.5672
▁planned	-10.5676
▁die	-10.5678
ick	-10.5684
Thread	-10.5685
nClick	-10.5691
ble	-10.5692
▁investors	-10.5692
▁mixture	-10.5695
▁engagement	-10.5698
▁Price	-10.5708
Editor	-10.571
▁directory	-10.5711
▁informed	-10.572
87	-10.5725
▁examples	-10.5725
▁Professional	-10.5726
▁solve	-10.5726
▁prime	-10.5726
▁campus	-10.5728
▁contest	-10.573
▁married	-10.5743
▁eventually	-10.5744
▁Angeles	-10.5748
▁returned	-10.575
▁MP	-10.575
ella	-10.5752
▁photography	-10.5759
▁FREE	-10.5759
▁Report	-10.5759
▁configure	-10.576
▁manufacturers	-10.5762
tech	-10.5764
▁atmosphere	-10.5766
▁recognized	-10.5768
▁Under	-10.5771
38	-10.5775
▁readers	-10.5778
▁payments	-10.578
▁aren	-10.5781
AP	-10.5782
▁zone	-10.5786
▁constantly	-10.5787
▁savings	-10.5792
Part	-10.5795
▁musical	-10.5796
Graph	-10.58
▁2008	-10.5801
▁Ver	-10.5804
Async	-10.5806
▁Party	-10.5807
▁Da	-10.5809
▁considering	-10.5809
nCan	-10.5815
88	-10.5819
▁vital	-10.582
▁Paris	-10.5822
▁operate	-10.5822
▁medicine	-10.5824
▁Peter	-10.5826
▁constant	-10.5827
▁symptoms	-10.5828
▁Keep	-10.5833
▁Custom	-10.5843
▁begins	-10.5845
▁pleased	-10.5847
nHowever	-10.5849
which	-10.5851
▁se	-10.5854
Module	-10.5854
▁Word	-10.5855
▁orders	-10.5859
▁Pi	-10.5861
nK	-10.5864
ming	-10.5867
▁capture	-10.5869
26	-10.5872
nAre	-10.5874
▁Guide	-10.5876
▁specialist	-10.5879
ph	-10.588
▁Jersey	-10.5883
▁yesterday	-10.5888
▁priority	-10.5897
▁Insurance	-10.5898
▁codes	-10.5903
▁craft	-10.5905
▁battle	-10.5908
▁Bean	-10.591
ani	-10.5915
ify	-10.5917
Control	-10.5917
▁flavor	-10.5926
ations	-10.5928
▁getString	-10.5932
▁(19	-10.5933
▁vs	-10.5934
▁engage	-10.5934
link	-10.5941
▁shops	-10.5942
▁represent	-10.5943
low	-10.5944
▁possibly	-10.5946
▁Pa	-10.595
che	-10.5951
200	-10.5955
▁Earth	-10.5961
ris	-10.5962
▁mo	-10.5963
▁reputation	-10.5966
Folder	-10.5968
▁caught	-10.5969
▁Sam	-10.597
▁decades	-10.5985
ane	-10.5985
ON	-10.599
▁movies	-10.5994
ins	-10.5996
▁joint	-10.5998
▁Martin	-10.5999
▁inches	-10.6
▁Se	-10.6001
▁var	-10.6001
▁soil	-10.6003
▁conduct	-10.6004
▁Mexico	-10.601
▁Enjoy	-10.6011
▁Sub	-10.602
▁carried	-10.6023
▁wallpaper	-10.6028
▁twice	-10.6029
Controller	-10.603
PS	-10.6033
AT	-10.6036
▁facing	-10.6037
fa	-10.6037
▁Middle	-10.6038
▁perspective	-10.6038
▁knowing	-10.6039
ious	-10.604
▁meta	-10.6042
▁accepted	-10.6049
▁Digital	-10.6051
ons	-10.6053
▁river	-10.6054
Internal	-10.6057
Space	-10.6058
▁elegant	-10.6062
nic	-10.6063
pre	-10.6067
▁ages	-10.6068
Strategy	-10.6072
▁conducted	-10.6073
▁Jo	-10.6074
ole	-10.6075
▁Human	-10.6075
▁mixed	-10.6078
our	-10.6079
▁Block	-10.608
▁challenging	-10.6083
▁fishing	-10.6086
eg	-10.6088
▁tagged	-10.6089
Double	-10.6089
▁clazz	-10.6091
nes	-10.6099
▁LED	-10.6104
du	-10.6106
▁phase	-10.6109
▁talent	-10.6112
▁Energy	-10.6112
▁historical	-10.6115
▁getDefault	-10.6117
▁cycle	-10.6118
▁episode	-10.6121
▁committee	-10.6121
▁fly	-10.6121
▁Where	-10.6121
▁blend	-10.6122
▁behavior	-10.6122
AM	-10.6129
▁par	-10.6132
Cluster	-10.6135
▁errors	-10.614
▁availability	-10.6141
▁treated	-10.6143
▁receiving	-10.6143
han	-10.6146
▁Press	-10.6151
▁crew	-10.6154
▁Mill	-10.6155
▁IS	-10.6159
▁Cross	-10.6163
nD	-10.6165
▁UN	-10.6165
▁tested	-10.6171
▁NO	-10.6174
▁Connection	-10.6184
Str	-10.6185
▁bread	-10.6185
▁stack	-10.6187
▁satisfaction	-10.6192
▁routine	-10.6193
▁Learn	-10.6196
▁Fund	-10.6198
▁dish	-10.62
Api	-10.6202
▁dates	-10.621
▁clothes	-10.6215
Doc	-10.6215
▁width	-10.6219
-5	-10.6222
▁superior	-10.6225
▁Welcome	-10.6225
▁Come	-10.6228
▁brother	-10.623
long	-10.623
48	-10.6235
▁Cloud	-10.6235
▁dollars	-10.6237
path	-10.6238
▁Index	-10.6239
▁IllegalState	-10.6239
▁communicate	-10.6241
▁Machine	-10.625
ped	-10.6256
▁monitoring	-10.6257
▁tables	-10.626
▁Har	-10.6265
▁plays	-10.6272
tu	-10.6274
▁architecture	-10.6274
▁border	-10.6274
▁missed	-10.6276
lon	-10.6278
ue	-10.628
▁pink	-10.6281
▁Expression	-10.6286
▁arm	-10.6286
▁sets	-10.6288
▁massive	-10.6291
▁edit	-10.6291
SC	-10.6294
▁transportation	-10.6294
▁stars	-10.6297
▁Po	-10.6297
De	-10.6299
▁pricing	-10.6302
▁API	-10.6302
▁festival	-10.6303
▁arrive	-10.6305
▁tech	-10.6308
don	-10.6311
▁trend	-10.6312
▁carbon	-10.6316
▁soul	-10.6319
▁Living	-10.6321
▁getResource	-10.6323
▁deposit	-10.6323
▁desk	-10.6324
▁Component	-10.6331
▁yes	-10.6332
Changed	-10.6338
▁guidance	-10.6339
84	-10.6341
▁improving	-10.6347
kin	-10.6351
▁Airport	-10.6351
▁magazine	-10.6355
▁Rose	-10.6357
TH	-10.6357
ow	-10.6358
▁degrees	-10.6358
▁issued	-10.6359
▁meetings	-10.636
▁motion	-10.6363
▁tall	-10.6369
▁arrived	-10.637
▁Dan	-10.637
▁earned	-10.6371
▁agents	-10.6377
▁exist	-10.6382
▁proven	-10.6383
▁inch	-10.6385
nOnce	-10.6385
ose	-10.6392
▁Process	-10.6392
▁appeared	-10.6394
▁organized	-10.6399
ov	-10.6404
▁plugin	-10.6409
LA	-10.6411
▁commit	-10.6411
▁Part	-10.6415
▁typical	-10.6424
04	-10.6428
▁MO	-10.643
ther	-10.6431
▁historic	-10.6435
▁Cor	-10.6441
▁signal	-10.6443
▁trail	-10.6443
▁temp	-10.6444
Hash	-10.6448
▁injuries	-10.6451
▁Journal	-10.6456
▁exhibition	-10.6456
view	-10.6464
▁Police	-10.6467
▁portfolio	-10.647
CO	-10.6471
▁finest	-10.6471
▁bags	-10.6472
▁attractive	-10.6474
▁feels	-10.6479
BA	-10.6479
▁Land	-10.6479
ably	-10.6488
▁charged	-10.6488
▁bridge	-10.6488
▁attorney	-10.6489
▁usage	-10.649
▁finance	-10.649
▁lessons	-10.6495
Flow	-10.6496
ade	-10.6496
▁Chris	-10.6497
ini	-10.65
▁Sports	-10.6504
▁reflect	-10.6508
ged	-10.6509
▁Help	-10.6509
ene	-10.6513
▁ongoing	-10.6514
▁proposed	-10.6515
▁joining	-10.6516
▁PDF	-10.6517
▁managing	-10.6518
▁except	-10.6518
▁param	-10.6519
▁Dec	-10.6523
▁scheme	-10.6524
▁foods	-10.6526
▁situations	-10.6527
▁Product	-10.6528
see	-10.6541
▁filed	-10.6541
fe	-10.6542
You	-10.6546
▁mis	-10.6547
▁Santa	-10.6548
▁attached	-10.6548
▁occur	-10.6549
47	-10.6549
▁combine	-10.655
▁causes	-10.6551
▁Ab	-10.6553
▁significantly	-10.6557
▁sister	-10.6557
▁len	-10.6558
Resolver	-10.6558
Cell	-10.6564
▁Instagram	-10.6571
▁mill	-10.6571
▁Buy	-10.6573
▁implement	-10.6575
ette	-10.6576
▁Mobile	-10.6582
▁Carolina	-10.6584
▁lived	-10.6585
-10	-10.6595
cal	-10.6596
▁Travel	-10.6596
▁Unit	-10.6597
▁Session	-10.6608
▁bi	-10.6609
03	-10.6609
89	-10.6616
yl	-10.662
▁suite	-10.6621
▁arts	-10.6622
gar	-10.6622
EC	-10.6626
▁viewed	-10.663
py	-10.6631
▁researchers	-10.6632
▁Cat	-10.6634
▁api	-10.6637
▁mass	-10.6638
▁Thread	-10.6645
▁flower	-10.6648
▁processor	-10.6649
▁Russian	-10.6653
level	-10.6654
cing	-10.6662
▁permission	-10.6664
▁happening	-10.6664
▁clothing	-10.6665
▁identified	-10.6666
▁Building	-10.6666
▁taught	-10.6666
▁Italy	-10.6666
▁sustainable	-10.6667
▁definition	-10.6667
▁surprise	-10.6668
▁emotional	-10.6669
▁strategic	-10.6669
law	-10.6669
Open	-10.6669
nJust	-10.667
▁desired	-10.6672
▁founded	-10.6676
▁pure	-10.6678
▁invited	-10.6681
▁Coast	-10.6685
▁Using	-10.6689
86	-10.6693
▁Properties	-10.6694
▁capabilities	-10.6697
▁institutions	-10.6699
run	-10.6701
ld	-10.6704
om	-10.6705
▁48	-10.6706
▁shares	-10.6707
Boolean	-10.6709
▁pride	-10.6716
▁industries	-10.672
▁Chi	-10.6723
▁invoke	-10.6731
▁Space	-10.6733
▁NY	-10.6736
Ids	-10.6736
▁tank	-10.6739
ez	-10.6739
tal	-10.6739
nH	-10.6741
▁Little	-10.6743
▁$3	-10.6744
Keys	-10.6744
▁visible	-10.6745
▁kid	-10.6746
ging	-10.6746
▁weekly	-10.6748
bb	-10.6751
▁ultimate	-10.6755
IA	-10.6756
▁collected	-10.6758
▁linked	-10.676
▁exceptional	-10.6765
nDr	-10.6765
▁booking	-10.6767
▁express	-10.6767
After	-10.6768
ET	-10.677
▁Thomas	-10.6775
Co	-10.678
▁awarded	-10.6781
▁matters	-10.6783
42	-10.6783
▁Select	-10.6786
▁lo	-10.6789
ned	-10.6794
▁grant	-10.6798
▁printing	-10.6799
▁graduate	-10.68
▁ski	-10.68
right	-10.6801
Processor	-10.6802
▁Level	-10.6804
ification	-10.6809
▁stands	-10.6811
cast	-10.6813
Converter	-10.6815
Up	-10.6815
are	-10.6816
▁Text	-10.6816
88\	-10.6817
▁neighborhood	-10.682
▁apart	-10.682
ball	-10.682
▁storm	-10.6821
▁liquid	-10.6823
▁ensuring	-10.6826
▁treatments	-10.6827
▁positions	-10.6831
▁roles	-10.6833
▁confirm	-10.6834
▁revealed	-10.6836
▁hidden	-10.6838
▁icon	-10.684
file	-10.6841
▁closer	-10.6842
▁beer	-10.6842
▁Review	-10.6842
▁cur	-10.6846
▁Virginia	-10.6846
▁offices	-10.6846
Selection	-10.6852
style	-10.6859
ub	-10.6864
▁gun	-10.6867
▁scan	-10.6869
▁technique	-10.6874
▁folder	-10.6874
hr	-10.6875
Case	-10.6877
▁boys	-10.6885
▁Java	-10.6885
▁EU	-10.6886
▁def	-10.6888
friendly	-10.6888
Region	-10.6888
▁freedom	-10.6891
▁testGet	-10.6893
▁Night	-10.6897
TA	-10.6899
65	-10.6903
Plan	-10.6904
▁mortgage	-10.6906
▁loans	-10.6909
07	-10.6923
Sequence	-10.6925
▁urban	-10.6925
▁performing	-10.6926
▁frequently	-10.6927
▁certificate	-10.6927
▁criminal	-10.6928
▁ST	-10.6933
▁Next	-10.6934
▁Ireland	-10.6934
▁sequence	-10.694
▁usual	-10.6943
▁AC	-10.6944
▁aspect	-10.6952
OL	-10.6958
xce	-10.6959
EN	-10.696
Generator	-10.6961
ena	-10.6963
▁Camp	-10.6969
▁chart	-10.6969
ear	-10.6974
02	-10.6976
▁tomorrow	-10.6977
▁Mi	-10.6977
91	-10.6984
▁heating	-10.6987
ell	-10.6988
▁upgrade	-10.6993
war	-10.7003
▁goods	-10.7003
▁tight	-10.7004
▁boxes	-10.7005
▁Hand	-10.7006
▁fell	-10.7008
▁contribute	-10.7008
▁Chief	-10.7008
▁Step	-10.7009
▁graph	-10.7017
▁swimming	-10.7017
▁defense	-10.7017
▁jump	-10.7017
▁vary	-10.7021
▁hotels	-10.7022
▁Executive	-10.7024
▁announce	-10.7029
▁36	-10.7031
▁variable	-10.7033
▁juice	-10.7034
▁ordered	-10.7037
Binding	-10.7043
▁Box	-10.7045
▁Storage	-10.7047
NA	-10.705
▁AS	-10.705
▁clock	-10.7053
▁framework	-10.7058
▁protein	-10.706
▁minor	-10.7061
Domain	-10.7063
av	-10.7067
rick	-10.7068
▁lift	-10.7069
▁Farm	-10.7071
date	-10.7072
▁picked	-10.7072
act	-10.7074
▁attended	-10.7074
DE	-10.7076
▁spa	-10.7078
▁About	-10.7078
▁trigger	-10.7084
▁categories	-10.7085
▁execution	-10.7086
▁moments	-10.709
▁Does	-10.7092
▁turns	-10.7093
▁Van	-10.7096
▁shoot	-10.7097
▁Steel	-10.7101
▁Spanish	-10.7102
▁alcohol	-10.7105
83	-10.7107
▁Oil	-10.7107
nN	-10.7109
▁investigation	-10.711
med	-10.7111
cc	-10.7114
▁URI	-10.7115
▁ceiling	-10.7116
()	-10.7117
▁drawing	-10.7117
nSince	-10.7119
▁Repair	-10.712
▁listing	-10.712
▁SQL	-10.7129
▁Ke	-10.7129
▁wash	-10.713
)"	-10.7133
▁visited	-10.7139
Val	-10.7145
▁chemical	-10.7148
▁yard	-10.715
▁mining	-10.7151
▁bundle	-10.7152
Expr	-10.7154
Fi	-10.7155
▁Ball	-10.7156
▁MS	-10.7158
▁Create	-10.7161
vin	-10.7164
▁reporting	-10.7166
▁cm	-10.7166
▁Zealand	-10.7167
▁awards	-10.7171
cr	-10.7172
ew	-10.7172
▁Quality	-10.7173
▁patio	-10.7175
▁keeps	-10.7179
▁Http	-10.7179
▁Fa	-10.718
▁Fair	-10.7183
▁recording	-10.7183
▁grand	-10.7183
▁recipes	-10.7186
▁Times	-10.719
nGet	-10.7192
▁Bi	-10.7193
▁capable	-10.7193
Future	-10.7196
▁handling	-10.7202
▁segment	-10.7203
▁2006	-10.7204
▁versions	-10.7205
▁consists	-10.7206
Annotation	-10.7206
▁concern	-10.7207
▁enabled	-10.7213
▁speaking	-10.7223
▁horse	-10.7228
▁enables	-10.7228
▁LA	-10.7228
▁determined	-10.7228
▁Drive	-10.7231
AD	-10.7233
▁colours	-10.7237
▁scored	-10.7253
▁magic	-10.7255
▁400	-10.7261
Feature	-10.7262
▁Hot	-10.7266
▁MA	-10.7268
▁mainly	-10.7273
▁subscription	-10.7274
▁election	-10.7274
▁fellow	-10.7281
▁coloring	-10.7281
cha	-10.7282
▁killed	-10.7282
▁wooden	-10.7283
▁sink	-10.7284
▁vintage	-10.7286
▁refresh	-10.729
chi	-10.7293
▁Engineering	-10.7295
Web	-10.7297
▁Lee	-10.7297
ct	-10.7299
▁marriage	-10.73
▁Southern	-10.7302
ok	-10.7302
xeb	-10.7306
▁Summer	-10.7306
bed	-10.7314
▁thin	-10.7316
▁Sale	-10.7319
Pre	-10.7319
▁meals	-10.7319
▁films	-10.7323
▁Update	-10.7325
▁Jack	-10.7326
▁Ja	-10.7326
▁tap	-10.7328
▁tip	-10.733
▁import	-10.7334
tri	-10.7335
Operator	-10.7336
▁Tour	-10.7337
▁Stone	-10.7337
▁addAll	-10.7337
▁evaluation	-10.7339
▁attributes	-10.734
Condition	-10.7341
▁stainless	-10.7343
▁west	-10.7347
ants	-10.7349
▁Sch	-10.735
▁getCurrent	-10.7351
▁Students	-10.7354
▁webservices	-10.7357
▁Config	-10.7359
▁Made	-10.7366
96	-10.7372
▁partition	-10.7373
▁vast	-10.7375
▁trans	-10.7377
Memory	-10.7377
▁Training	-10.7378
▁dust	-10.738
2"	-10.738
▁approval	-10.7382
▁criteria	-10.7382
gan	-10.7383
▁scientific	-10.7383
▁Void	-10.7384
Script	-10.7386
nDon	-10.7388
▁whenever	-10.7389
▁graphics	-10.739
▁thick	-10.7401
▁Marketing	-10.7402
First	-10.7406
ata	-10.7409
▁Modern	-10.7412
▁Sha	-10.7412
Plugin	-10.7414
KEY	-10.7414
▁immediate	-10.7414
▁branch	-10.7418
▁broad	-10.7418
hand	-10.7421
▁utility	-10.7426
unchecked	-10.7431
UI	-10.7434
▁principal	-10.744
▁Filter	-10.7443
▁Scott	-10.7444
▁normally	-10.7444
▁Site	-10.7445
05	-10.7445
▁whom	-10.7449
▁trace	-10.7452
star	-10.7453
▁OS	-10.7457
▁concerned	-10.7457
related	-10.7458
cat	-10.7461
Next	-10.7462
▁Record	-10.7468
▁defined	-10.747
▁abuse	-10.7471
Op	-10.7471
Con	-10.7473
▁eligible	-10.7476
▁Way	-10.7477
▁Cover	-10.7486
▁Congress	-10.7487
▁venue	-10.749
▁Gar	-10.749
Pro	-10.7497
▁Bio	-10.7498
▁History	-10.7499
▁chief	-10.7504
▁Silver	-10.7506
▁protocol	-10.7508
lt	-10.7509
▁symbol	-10.751
▁operator	-10.751
▁Maybe	-10.7514
▁entered	-10.7514
▁Pet	-10.7517
▁suppliers	-10.7521
nIs	-10.7523
▁NotNull	-10.7524
▁spray	-10.7525
▁alongside	-10.7526
▁namespace	-10.7526
val	-10.7526
▁SC	-10.7528
▁packages	-10.7529
mit	-10.753
▁willing	-10.7531
▁developers	-10.7532
▁Inter	-10.7538
▁prefix	-10.7539
▁shooting	-10.754
▁enjoying	-10.7541
▁opt	-10.7546
▁tests	-10.7547
▁flooring	-10.755
Enum	-10.7552
sen	-10.7552
▁turning	-10.7555
▁comparison	-10.7556
▁crucial	-10.7556
IM	-10.7559
▁volunteer	-10.7561
era	-10.7562
▁forces	-10.7562
▁2007	-10.7562
▁debut	-10.7562
▁guitar	-10.7565
IO	-10.7566
▁promise	-10.7568
▁$5	-10.7571
air	-10.7571
▁officer	-10.7573
▁saved	-10.7574
ding	-10.7576
▁hosted	-10.7577
▁cancel	-10.7579
▁rating	-10.758
▁achieved	-10.758
▁Financial	-10.7582
Box	-10.7582
▁Channel	-10.7589
Stack	-10.759
inch	-10.7591
▁span	-10.7593
▁Very	-10.7594
▁tiny	-10.7596
▁et	-10.76
nNot	-10.7602
▁Ford	-10.7602
▁permanent	-10.7602
▁Sal	-10.7603
▁du	-10.7603
▁originally	-10.7604
▁Systems	-10.7608
▁exposure	-10.761
ib	-10.7614
▁Command	-10.7618
▁seats	-10.7621
▁Station	-10.7623
▁planet	-10.7625
▁Photo	-10.7626
▁Transaction	-10.7628
▁integration	-10.763
▁Context	-10.7631
▁Col	-10.7633
Stats	-10.7636
Mock	-10.7637
ado	-10.7639
▁confirmed	-10.7639
some	-10.7641
▁Gallery	-10.7642
▁regulations	-10.7644
▁repairs	-10.7648
gy	-10.7648
▁Mike	-10.7648
▁stopped	-10.7651
▁ocean	-10.7654
▁DE	-10.7656
▁im	-10.7656
made	-10.7661
PO	-10.7663
28	-10.7668
▁Wa	-10.7669
▁DC	-10.7669
nie	-10.7673
▁noticed	-10.7675
▁worse	-10.7676
Frame	-10.7678
▁pen	-10.7678
▁rice	-10.7683
▁Smart	-10.7683
iv	-10.7684
▁dangerous	-10.7685
▁imagine	-10.7686
▁occasion	-10.7694
▁hasNext	-10.7696
▁reasonable	-10.7701
▁bonus	-10.7703
▁Country	-10.7704
you	-10.7709
▁setValue	-10.771
!!!\	-10.7712
home	-10.7712
▁Russia	-10.7713
az	-10.7715
▁bedrooms	-10.7719
▁Ca	-10.7725
▁Ta	-10.7728
▁describe	-10.7729
▁Boston	-10.7731
▁controller	-10.7733
▁dealing	-10.7735
Num	-10.7735
▁LLC	-10.7735
DS	-10.7736
▁Link	-10.7738
▁export	-10.7738
▁audit	-10.7741
▁hurt	-10.7741
▁Its	-10.7742
▁contracts	-10.7743
▁slot	-10.7745
▁displayed	-10.775
▁buyers	-10.775
▁sa	-10.7751
▁brief	-10.7753
▁Visit	-10.7756
ou	-10.7757
▁neck	-10.776
▁mm	-10.7762
rie	-10.7763
▁panels	-10.7763
▁Games	-10.7764
▁Note	-10.7764
▁Short	-10.7766
▁Hu	-10.7767
▁enterprise	-10.7768
▁FOR	-10.7769
▁holidays	-10.777
PC	-10.7771
▁labor	-10.7776
▁Ohio	-10.778
cor	-10.7783
Consumer	-10.7783
▁proof	-10.7786
InputStream	-10.7789
vi	-10.7791
▁nor	-10.7794
▁bind	-10.7794
▁spiritual	-10.7794
▁licensed	-10.7796
Window	-10.7799
▁Content	-10.78
istic	-10.7801
▁Bur	-10.7803
▁ma	-10.7806
Return	-10.7808
▁seemed	-10.7812
▁grew	-10.7821
▁hang	-10.7821
▁annotation	-10.7828
▁interactive	-10.7828
Dto	-10.7831
▁Film	-10.7831
▁Bra	-10.7837
▁pleasure	-10.7839
▁Michigan	-10.7842
Sql	-10.7845
▁league	-10.7848
▁Through	-10.7849
▁skilled	-10.7851
ual	-10.7852
▁supplier	-10.7852
▁van	-10.7858
▁Estate	-10.7861
▁ho	-10.7861
▁confident	-10.7862
▁unable	-10.7864
▁Source	-10.7866
▁platforms	-10.7867
▁entries	-10.787
▁YouTube	-10.787
▁Need	-10.7874
ls	-10.7875
▁luck	-10.7875
▁drugs	-10.7875
nNew	-10.788
Dialog	-10.7882
▁compliance	-10.7884
nLast	-10.7884
▁Column	-10.7886
▁Off	-10.7886
Security	-10.7887
Only	-10.7887
▁shift	-10.789
▁functional	-10.789
Per	-10.7893
▁Account	-10.7896
▁Row	-10.7899
▁clicking	-10.79
▁admin	-10.7902
▁decor	-10.7902
▁Net	-10.7908
▁2.0	-10.791
▁150	-10.791
▁Iterator	-10.7914
▁risks	-10.7915
▁shell	-10.7919
Layout	-10.792
ender	-10.792
mark	-10.7921
gate	-10.7922
MO	-10.7922
▁relax	-10.7925
▁agreed	-10.7928
▁county	-10.7929
▁queue	-10.7931
Single	-10.7943
▁ancient	-10.7947
66	-10.7951
▁vi	-10.7952
▁Awards	-10.7957
▁networks	-10.796
▁generated	-10.796
▁Main	-10.7961
▁Change	-10.7964
▁para	-10.7966
▁Look	-10.7967
▁Another	-10.797
nMany	-10.7973
lar	-10.7976
▁duty	-10.7977
▁William	-10.7982
Do	-10.7983
▁accommodation	-10.7984
▁convenience	-10.7984
lock	-10.7984
▁pump	-10.7986
illa	-10.7991
Bar	-10.7994
▁grid	-10.7996
▁healing	-10.7997
▁wireless	-10.8
▁2005	-10.8
▁warranty	-10.8006
▁purchasing	-10.8007
▁CT	-10.8007
▁env	-10.8009
▁noise	-10.8009
▁completion	-10.8011
▁firms	-10.8012
▁stylish	-10.8021
▁filling	-10.8027
);	-10.8028
lie	-10.803
uck	-10.8032
nAlso	-10.8033
▁Interrupted	-10.8038
▁durable	-10.804
▁kill	-10.804
▁widely	-10.8043
▁poll	-10.8045
cho	-10.8048
▁whilst	-10.8049
77	-10.8049
2)	-10.805
▁Save	-10.8054
▁42	-10.8056
lor	-10.8057
▁honest	-10.8059
▁egg	-10.806
▁Win	-10.8068
Xml	-10.807
▁cotton	-10.8072
▁blocks	-10.8074
▁submitted	-10.8075
tz	-10.8078
▁memories	-10.808
Invalid	-10.8081
▁circumstances	-10.8081
▁restore	-10.8089
▁reduction	-10.8089
CE	-10.8094
▁orange	-10.8095
▁flag	-10.8097
Device	-10.8104
▁rose	-10.8104
▁recognize	-10.8107
▁Log	-10.8112
▁https	-10.8115
▁crowd	-10.8117
berg	-10.8117
▁inform	-10.8118
▁SE	-10.812
nW	-10.812
▁Federal	-10.812
▁entrance	-10.812
Executor	-10.8121
▁portion	-10.8128
br	-10.8129
wi	-10.8129
▁Item	-10.813
▁stated	-10.8132
▁Week	-10.8132
▁reply	-10.8133
gu	-10.8134
▁covering	-10.8136
service	-10.8137
Network	-10.8137
▁expenses	-10.8138
▁mirror	-10.814
▁Richard	-10.814
▁Ram	-10.8144
78	-10.8149
Parent	-10.8153
▁dishes	-10.8154
▁bird	-10.8155
▁Run	-10.8157
▁Young	-10.8159
▁forum	-10.816
Auto	-10.8161
▁entirely	-10.8162
▁posting	-10.8167
▁timeout	-10.8167
▁consistent	-10.8168
▁represents	-10.8169
ising	-10.8174
▁banks	-10.8178
AR	-10.8178
fully	-10.8178
▁Software	-10.8179
▁channels	-10.8179
▁USB	-10.818
care	-10.818
isation	-10.8181
EL	-10.8184
▁le	-10.8184
▁Georgia	-10.8184
-12	-10.8186
▁adjust	-10.8186
7.	-10.8187
▁connections	-10.8192
-19	-10.8193
▁mod	-10.8194
nYes	-10.8198
▁da	-10.8199
▁BigDecimal	-10.8199
▁Style	-10.8205
▁citizens	-10.821
jo	-10.8211
nR	-10.8215
▁establish	-10.8215
ml	-10.8218
▁formal	-10.8219
▁texture	-10.8219
▁Bridge	-10.822
▁east	-10.822
▁resistance	-10.8223
LY	-10.8224
▁2018.	-10.8226
▁backup	-10.8227
86\	-10.823
▁semi	-10.823
ama	-10.8231
▁volunteers	-10.8234
55	-10.8241
▁profit	-10.8242
▁DVD	-10.8242
▁Francisco	-10.8244
▁sky	-10.8246
nHave	-10.8248
▁Future	-10.8254
Member	-10.8261
▁Personal	-10.8263
sk	-10.8263
43	-10.8264
▁req	-10.8265
▁Try	-10.8265
har	-10.8266
▁pace	-10.8268
Failure	-10.8273
▁loving	-10.8273
▁graphic	-10.8275
▁Instead	-10.8276
ero	-10.8277
▁none	-10.8283
▁Bathroom	-10.8288
44	-10.8296
▁formed	-10.8296
Multi	-10.8298
▁2018,	-10.8298
Import	-10.8298
▁Therefore	-10.8299
^	-10.8304
qua	-10.8311
▁extend	-10.8315
▁relatively	-10.8318
▁downtown	-10.8318
▁flash	-10.8319
▁lawyer	-10.8319
▁drain	-10.8322
▁invest	-10.8323
aw	-10.8327
▁Template	-10.8328
Valid	-10.833
▁faculty	-10.8331
▁Brand	-10.8331
▁workshops	-10.8332
▁programming	-10.8332
▁plot	-10.8337
Permission	-10.8339
▁implemented	-10.8339
▁src	-10.8339
▁exp	-10.834
▁delivering	-10.8346
67	-10.8347
▁33	-10.8348
▁estimated	-10.8349
▁listening	-10.8349
Interval	-10.835
06	-10.8354
ari	-10.8357
▁certification	-10.8362
▁replaced	-10.8368
▁stored	-10.8369
nce	-10.837
▁inspire	-10.8371
▁kick	-10.8372
▁2,	-10.8373
▁SO	-10.8373
▁classroom	-10.8373
Holder	-10.838
▁communications	-10.8382
▁guaranteed	-10.8383
▁loop	-10.8383
▁Mountain	-10.8385
▁lease	-10.8386
57	-10.839
▁3-	-10.8393
▁Par	-10.8393
▁Pacific	-10.8394
ju	-10.8396
▁resort	-10.8399
▁Division	-10.84
OutputStream	-10.8402
▁pepper	-10.8403
nHi	-10.8404
):	-10.8406
▁crime	-10.8406
▁Calendar	-10.8413
▁personally	-10.8417
▁introduction	-10.842
]"	-10.8423
▁cabinet	-10.8424
tel	-10.8427
▁delay	-10.8429
▁Mor	-10.843
▁Those	-10.8432
▁matching	-10.8433
▁preferred	-10.8434
▁tape	-10.8435
win	-10.8439
▁figures	-10.844
▁producing	-10.844
▁Pan	-10.8441
ett	-10.8446
41	-10.8446
▁coast	-10.8446
▁authorities	-10.8447
▁Colorado	-10.8448
xml	-10.845
▁recommendations	-10.845
▁Israel	-10.8453
▁Schema	-10.8454
▁wiring	-10.8455
▁Exchange	-10.8455
▁tracks	-10.8455
TE	-10.8458
▁hall	-10.8458
▁presents	-10.8458
▁Northern	-10.8465
▁tells	-10.8469
▁household	-10.8472
▁conversion	-10.8475
uring	-10.8475
af	-10.8481
ments	-10.8482
▁designers	-10.8484
▁venture	-10.8485
▁prize	-10.8489
46	-10.8495
▁arrival	-10.8498
-3	-10.85
▁2003	-10.8501
▁laptop	-10.8505
▁Com	-10.8511
▁laser	-10.8513
▁aims	-10.8516
Inner	-10.852
ATION	-10.852
▁hoping	-10.8522
▁circuit	-10.8523
ug	-10.8528
▁na	-10.8531
▁speech	-10.8534
▁login	-10.8535
....	-10.8538
Admin	-10.8541
▁Sign	-10.8541
CH	-10.8542
▁flush	-10.8545
▁getData	-10.8546
▁grass	-10.8546
uri	-10.8549
▁cookies	-10.855
▁seed	-10.855
▁Sometimes	-10.8551
▁Johnson	-10.8553
▁requirement	-10.8555
▁Matt	-10.8559
▁pocket	-10.856
▁celebration	-10.8561
▁Internal	-10.8564
▁officers	-10.8572
ock	-10.8573
▁ends	-10.8574
▁smoke	-10.8575
▁decade	-10.8576
▁reducing	-10.8582
amp	-10.8583
▁obtained	-10.8584
▁encode	-10.8585
▁ta	-10.8587
▁asset	-10.8588
▁suggestions	-10.8591
▁Kit	-10.8593
▁relief	-10.8595
▁Private	-10.8596
▁OK	-10.8599
▁hip	-10.86
▁forced	-10.8605
▁Natural	-10.8609
▁HP	-10.8609
text	-10.8614
▁organisation	-10.8616
RO	-10.8617
ties	-10.8619
▁Senior	-10.8624
▁loves	-10.8625
▁producer	-10.8625
▁highlight	-10.8626
ight	-10.8628
▁Core	-10.863
▁wet	-10.8642
▁Plant	-10.8647
▁maintaining	-10.865
▁resulting	-10.8654
ological	-10.8655
ky	-10.8659
▁afford	-10.8662
life	-10.8668
▁increases	-10.8668
▁massage	-10.8669
nLet	-10.8669
▁Single	-10.8669
▁Bible	-10.8669
ob	-10.8677
hour	-10.868
▁OR	-10.868
Protocol	-10.8681
▁tradition	-10.8685
FS	-10.869
izer	-10.8691
▁inventory	-10.8692
Last	-10.8693
▁lucky	-10.8701
Validator	-10.8701
Select	-10.8702
▁Ph	-10.8702
▁prove	-10.8703
▁SEO	-10.8705
▁shade	-10.8706
▁baking	-10.8707
▁seriously	-10.8708
GB	-10.8711
▁initiative	-10.8714
▁thrift	-10.8718
▁64	-10.8719
▁YOU	-10.8724
▁forest	-10.8725
▁funny	-10.8728
▁#1	-10.8728
▁chairs	-10.8731
▁ceremony	-10.874
▁Mount	-10.874
▁managers	-10.8741
▁hopes	-10.8742
nAnother	-10.8742
Category	-10.8743
ula	-10.8746
▁civil	-10.8746
▁Right	-10.875
▁arrange	-10.8751
▁invite	-10.8754
▁Sky	-10.8754
▁zero	-10.8754
▁repository	-10.8764
▁newly	-10.8766
ji	-10.8767
cher	-10.8767
from	-10.8777
▁hole	-10.8777
▁vegetables	-10.8779
▁concert	-10.8781
▁Happy	-10.8782
▁Radio	-10.8784
▁sharp	-10.8784
▁directed	-10.8784
nFirst	-10.8786
▁dreams	-10.8787
nL	-10.879
▁Ba	-10.8798
▁eggs	-10.8799
▁grab	-10.88
▁Has	-10.8804
▁giant	-10.8804
▁brilliant	-10.8805
▁Ed	-10.8806
▁focuses	-10.8808
▁Gu	-10.8809
▁letters	-10.8812
▁passionate	-10.8814
▁escape	-10.8817
▁explained	-10.8819
▁mouse	-10.882
BC	-10.8824
Environment	-10.8825
▁Basic	-10.8825
Simple	-10.8825
XML	-10.8825
▁bars	-10.8826
▁assume	-10.8828
▁automatic	-10.883
▁Which	-10.8831
iz	-10.8837
Extension	-10.8837
▁narrow	-10.8838
▁Safety	-10.8838
▁skip	-10.8839
▁possibility	-10.8842
▁noted	-10.8843
▁<=	-10.8845
▁crazy	-10.8846
▁Medicine	-10.8849
▁Mini	-10.885
▁Obama	-10.8853
!)	-10.8853
▁diagram	-10.8857
56	-10.8859
Database	-10.8867
▁Pe	-10.8874
▁hide	-10.8879
▁victory	-10.8883
read	-10.8887
▁muscle	-10.8889
▁proto	-10.8889
ets	-10.8893
▁Steve	-10.8893
Join	-10.8894
▁samples	-10.8895
nDe	-10.89
wing	-10.8904
▁reserved	-10.8906
▁formula	-10.8906
hy	-10.8907
nSt	-10.8908
▁username	-10.8908
▁Rights	-10.8909
▁recognition	-10.891
▁flexibility	-10.891
▁adapt	-10.8912
▁accommodate	-10.8912
ati	-10.8916
Support	-10.8916
▁util	-10.8916
▁alumni	-10.8917
▁checking	-10.8919
▁folks	-10.8923
▁losing	-10.8924
▁alarm	-10.8924
▁pipeline	-10.8925
OK	-10.8926
▁passing	-10.8927
making	-10.8927
▁zip	-10.8932
nEach	-10.8934
▁Tu	-10.8937
▁lab	-10.8937
▁sh	-10.8938
▁behalf	-10.8938
▁Studio	-10.8939
▁packaging	-10.894
▁founder	-10.8942
Byte	-10.8946
▁drinks	-10.8948
▁Mid	-10.8955
tr	-10.8959
▁recover	-10.8959
▁Williams	-10.8961
▁papers	-10.8962
▁Rest	-10.8963
pt	-10.8963
▁Saint	-10.8973
▁duration	-10.8974
▁Mu	-10.8976
▁percentage	-10.8976
▁Samsung	-10.8981
▁Size	-10.8982
!"	-10.8982
Comment	-10.8983
52	-10.8985
lip	-10.8987
space	-10.899
▁ALL	-10.8992
▁brush	-10.8995
▁fundamental	-10.8995
▁photographs	-10.8996
▁reception	-10.8997
▁discussed	-10.8998
▁desktop	-10.9
▁Did	-10.9
rt	-10.9003
▁Avenue	-10.9003
▁breast	-10.9005
▁statistics	-10.9006
Product	-10.9008
▁Version	-10.901
state	-10.9012
size	-10.9013
▁suffer	-10.9015
▁parseFrom	-10.9017
▁Heart	-10.9017
▁sensitive	-10.9017
Me	-10.9024
▁instant	-10.9025
bound	-10.9025
Post	-10.9026
▁guidelines	-10.9031
▁lifetime	-10.9035
van	-10.9038
▁taxes	-10.9041
▁primarily	-10.9041
▁era	-10.9042
▁Queen	-10.9042
▁parser	-10.9042
▁Band	-10.9051
▁birds	-10.9052
▁Non	-10.9052
nNext	-10.9052
▁stretch	-10.9053
▁lake	-10.9055
▁Disney	-10.9057
▁sending	-10.9059
▁functionality	-10.9059
▁acid	-10.9067
▁streets	-10.907
▁chose	-10.9072
▁FL	-10.9073
▁expansion	-10.9073
CI	-10.9076
▁stable	-10.9076
pur	-10.9078
▁forecast	-10.9078
▁printer	-10.9079
group	-10.908
CS	-10.9088
▁continuing	-10.909
▁ignore	-10.909
▁lay	-10.9096
ese	-10.9098
MC	-10.91
len	-10.91
▁professor	-10.9101
▁mapping	-10.9102
RI	-10.9103
Char	-10.9104
▁Crusher	-10.9107
▁lowest	-10.911
▁artwork	-10.911
▁compact	-10.9111
54	-10.9114
▁Singapore	-10.9114
▁floors	-10.9117
▁ear	-10.9117
▁spec	-10.9117
▁fits	-10.9119
▁SA	-10.9121
nDuring	-10.9129
▁Easy	-10.9134
▁dual	-10.9134
▁residence	-10.9136
▁AT	-10.9136
▁Having	-10.9138
▁gym	-10.9139
▁contrast	-10.9139
▁substring	-10.9139
Items	-10.9141
▁trusted	-10.9142
▁suggested	-10.9143
▁Looking	-10.9144
▁violence	-10.9146
▁jewelry	-10.9146
▁argument	-10.915
▁Professor	-10.915
▁requested	-10.9151
▁ft	-10.9154
▁singer	-10.9161
▁34	-10.9161
▁engaged	-10.9162
▁authority	-10.9163
▁requests	-10.9164
▁Nu	-10.9165
Custom	-10.9166
▁batch	-10.9166
Detail	-10.9167
▁Village	-10.9168
og	-10.9169
vert	-10.917
▁indoor	-10.917
▁ads	-10.9172
▁Grid	-10.9172
lay	-10.9172
oon	-10.9172
▁Joe	-10.9175
▁Ch	-10.9178
rk	-10.9182
nMost	-10.9185
▁sofa	-10.9186
▁justice	-10.9193
▁male	-10.9194
qu	-10.9195
▁Hope	-10.9197
▁painted	-10.9198
▁damaged	-10.9199
`	-10.9202
Remove	-10.9207
▁theory	-10.9207
pi	-10.921
▁marks	-10.921
▁sight	-10.9211
Non	-10.9215
▁mood	-10.9216
▁Should	-10.9216
▁depends	-10.9219
▁ha	-10.9219
▁encounter	-10.9221
▁Ru	-10.9223
▁preparing	-10.9223
▁commission	-10.9227
AND	-10.9227
sch	-10.9229
▁Cal	-10.9237
▁2004	-10.9237
Close	-10.9238
▁till	-10.9239
Term	-10.924
▁Target	-10.9242
▁Result	-10.9243
profit	-10.9245
Java	-10.9246
▁lesson	-10.9246
▁inspection	-10.9249
▁flights	-10.9249
▁Fort	-10.9249
▁tracking	-10.9251
▁XML	-10.9251
▁1.	-10.9255
gg	-10.9256
▁traveling	-10.9256
▁exterior	-10.9256
▁prop	-10.9258
▁refer	-10.926
▁Frank	-10.9265
DI	-10.9266
▁refund	-10.9266
▁structures	-10.9268
▁incredibly	-10.9268
▁applying	-10.9271
▁involves	-10.9274
▁severe	-10.9275
▁debate	-10.9276
nUse	-10.9276
RC	-10.9277
map	-10.9282
page	-10.9285
▁association	-10.9289
ME	-10.9289
▁cruise	-10.929
TC	-10.9291
▁telling	-10.9293
▁principles	-10.9293
▁quotes	-10.9294
DA	-10.9295
▁shots	-10.9296
▁surprised	-10.9296
cu	-10.9297
ale	-10.9298
▁assistant	-10.9299
▁Che	-10.9308
▁Mad	-10.9308
▁Andrew	-10.931
▁angle	-10.9312
▁legs	-10.9316
800	-10.9316
par	-10.9321
Width	-10.9329
PM	-10.9329
▁props	-10.9333
▁casino	-10.9335
Required	-10.9338
place	-10.9349
|	-10.9351
▁StringUtils	-10.9352
▁Tech	-10.9352
GA	-10.9354
▁comp	-10.9354
Serializer	-10.9356
ult	-10.9357
▁addresses	-10.9365
▁Forest	-10.9367
▁conflict	-10.9371
ano	-10.9373
Segment	-10.9373
▁Mel	-10.9376
▁spacious	-10.9378
▁yoga	-10.9378
▁Resume	-10.9378
▁coupon	-10.9381
▁initialize	-10.9382
▁Square	-10.9383
▁packed	-10.9383
▁fairly	-10.9385
▁obvious	-10.9387
▁currency	-10.9391
▁king	-10.9393
▁Nov	-10.9395
bin	-10.9397
▁tub	-10.9399
▁hate	-10.9402
zo	-10.9406
▁Glass	-10.9407
▁rack	-10.9409
▁younger	-10.9409
▁wealth	-10.9411
▁75	-10.9412
▁unlock	-10.9416
nCheck	-10.9421
▁pizza	-10.9423
▁religious	-10.9427
▁drinking	-10.9432
▁concerning	-10.9432
▁attending	-10.9438
ash	-10.9441
▁templates	-10.9443
▁steam	-10.9444
DC	-10.9444
▁callback	-10.9444
▁37	-10.945
▁Prime	-10.9452
▁crisis	-10.9452
▁chapter	-10.9452
▁SP	-10.9454
▁consumption	-10.9457
▁impossible	-10.9457
tan	-10.9457
▁coat	-10.9463
▁Creek	-10.9466
Auth	-10.9467
Batch	-10.9467
▁Kids	-10.9467
▁Three	-10.9469
▁concepts	-10.9469
▁NC	-10.947
▁increasingly	-10.9471
▁causing	-10.9471
▁boot	-10.9472
▁patch	-10.9474
▁naturally	-10.9474
▁authentic	-10.9475
▁Spain	-10.9475
▁unknown	-10.9476
▁forever	-10.9477
▁2019.	-10.9482
▁hat	-10.9485
▁getText	-10.9486
▁unexpected	-10.9488
source	-10.949
▁suffering	-10.9494
▁speaker	-10.9497
▁tags	-10.9497
▁extreme	-10.9498
▁2017,	-10.9499
Results	-10.9507
▁specialists	-10.951
▁Fe	-10.951
▁encouraged	-10.9511
▁corn	-10.9512
▁Address	-10.9512
▁centers	-10.9513
▁Jones	-10.9514
▁tournament	-10.9519
▁Agency	-10.952
▁aircraft	-10.952
Min	-10.9523
▁wave	-10.9523
▁commonly	-10.9528
▁acquire	-10.9531
▁alert	-10.9531
▁telephone	-10.9534
▁bodies	-10.9537
▁Americans	-10.9537
▁optional	-10.9538
▁minimal	-10.9538
▁closing	-10.9538
▁casual	-10.9543
▁smartphone	-10.9543
▁actor	-10.9544
▁ba	-10.9545
▁bucket	-10.9546
▁spots	-10.9548
active	-10.9554
▁Officer	-10.9554
▁retirement	-10.9556
▁bound	-10.9557
▁Spa	-10.9559
▁notify	-10.956
▁Trade	-10.9563
▁division	-10.9568
▁Dis	-10.9578
▁pin	-10.958
External	-10.9584
▁Policy	-10.9584
▁Low	-10.9585
▁Limited	-10.9585
▁Op	-10.9586
dale	-10.9587
Nodes	-10.9588
61	-10.9589
▁mask	-10.959
▁Bre	-10.9591
▁$4	-10.9591
how	-10.9591
▁origin	-10.9593
▁insight	-10.9598
▁MD	-10.9601
▁estimate	-10.9602
▁proposal	-10.9606
ica	-10.9606
▁Pay	-10.9607
base	-10.961
part	-10.9612
▁indeed	-10.9613
TI	-10.9617
▁plug	-10.9619
sy	-10.962
▁Cha	-10.962
▁rely	-10.9622
cA	-10.9623
▁consideration	-10.9624
▁satisfied	-10.9627
▁Micro	-10.9629
▁Toronto	-10.9634
▁Perfect	-10.9634
▁electricity	-10.9642
▁rubber	-10.9642
My	-10.9643
▁Paper	-10.9643
verse	-10.9646
▁Capital	-10.9647
▁Pat	-10.9648
nFind	-10.9651
▁Sales	-10.9651
Route	-10.9653
CP	-10.9653
ition	-10.9656
Short	-10.966
▁Pen	-10.9665
cre	-10.9669
nHa	-10.9669
Title	-10.9671
▁po	-10.9675
▁participating	-10.9676
▁pipe	-10.968
_2007	-10.9684
▁plain	-10.9685
▁Max	-10.9685
▁notification	-10.9686
▁PR	-10.9688
▁?\	-10.9689
▁Corporation	-10.9691
▁involving	-10.9691
▁talented	-10.9691
-6	-10.9694
▁aside	-10.9697
▁fireplace	-10.9697
▁ok	-10.97
nLa	-10.9705
▁Si	-10.9706
▁meets	-10.9709
nAdd	-10.9709
RS	-10.9709
▁Cache	-10.9713
▁beneficial	-10.9713
▁Wedding	-10.9718
▁Solutions	-10.972
▁marked	-10.9721
sis	-10.9722
▁belt	-10.9723
▁mat	-10.9725
▁destroy	-10.9726
▁55	-10.9726
▁Attribute	-10.9727
▁relative	-10.9728
▁Anti	-10.9728
▁herself	-10.9729
▁burn	-10.973
▁amenities	-10.9733
▁slowly	-10.9734
▁Bob	-10.9736
▁personality	-10.9742
Files	-10.9743
cent	-10.975
▁regions	-10.9751
▁council	-10.9753
ClassName	-10.9753
▁Sand	-10.9753
▁fetch	-10.9754
aries	-10.9756
▁Kingdom	-10.9756
ea	-10.9757
▁introduce	-10.976
▁Bal	-10.9762
HS	-10.9763
ric	-10.9763
▁controlled	-10.9766
▁bug	-10.9767
▁Operation	-10.9768
▁Large	-10.9768
TER	-10.9772
▁Jackson	-10.9777
▁ban	-10.9778
39	-10.9781
▁iPad	-10.9784
▁publication	-10.9786
▁getUser	-10.9789
SI	-10.979
▁incident	-10.9791
▁Cap	-10.9795
1)	-10.9795
▁liked	-10.9799
ami	-10.9801
▁acquisition	-10.9803
▁referred	-10.9803
53	-10.9803
▁creativity	-10.9805
▁relation	-10.9807
▁discounts	-10.9809
▁ultimately	-10.981
Load	-10.981
▁Gen	-10.9813
▁mold	-10.9819
▁doctors	-10.9823
row	-10.9824
▁wrapped	-10.9824
▁attacks	-10.9825
▁dropped	-10.9826
▁Status	-10.9834
▁Interior	-10.9835
▁ratio	-10.9836
NS	-10.9838
▁Consumer	-10.9841
▁wa	-10.9841
▁favor	-10.9842
▁mount	-10.9844
▁define	-10.9847
▁Golf	-10.9848
▁Dar	-10.9852
51	-10.9858
▁talks	-10.9859
Namespace	-10.9859
▁maintained	-10.9865
▁containsKey	-10.9866
▁transmission	-10.9868
▁gr	-10.9868
▁contractors	-10.9869
▁representation	-10.9869
▁Asian	-10.987
foot	-10.9871
▁depend	-10.9872
Active	-10.9873
▁somewhere	-10.9874
DTO	-10.9874
▁cart	-10.9874
ks	-10.9874
▁bear	-10.9878
▁tie	-10.9878
▁rural	-10.9878
▁compatible	-10.9879
▁MAX	-10.9879
▁viewing	-10.9881
▁demo	-10.9882
Selector	-10.9882
FA	-10.9884
▁authors	-10.9886
Save	-10.9887
▁Fast	-10.9888
▁Tim	-10.9898
▁Second	-10.9901
EM	-10.9906
nSee	-10.9908
ele	-10.9909
core	-10.9909
SU	-10.9912
▁speakers	-10.9913
▁placeholder	-10.9915
Current	-10.9917
PL	-10.9917
nNote	-10.9921
▁heading	-10.9922
▁2001	-10.9923
▁compensation	-10.9923
▁museum	-10.9928
VO	-10.993
Counter	-10.993
▁UI	-10.993
▁bold	-10.9931
72	-10.9938
▁anniversary	-10.9941
▁Customer	-10.9944
▁binding	-10.9945
▁phones	-10.9946
▁personnel	-10.9947
▁Studies	-10.9951
98\	-10.9952
lot	-10.9956
ore	-10.9956
▁creates	-10.9956
▁supposed	-10.9956
▁everywhere	-10.9959
▁flour	-10.9961
▁objective	-10.9962
▁DO	-10.9963
Timestamp	-10.9963
74	-10.9968
▁checked	-10.9968
SO	-10.9968
MetaData	-10.9972
▁Oak	-10.9972
SS	-10.9974
▁driven	-10.9976
▁sync	-10.9977
Copy	-10.9979
mal	-10.9979
▁ON	-10.9981
▁participation	-10.9981
▁Available	-10.9984
▁Fall	-10.9984
Partition	-10.9984
▁Classic	-10.9984
post	-10.9986
▁loose	-10.9988
▁breath	-10.999
▁composition	-10.9993
fish	-10.9994
▁Student	-10.9995
▁Window	-10.9998
76	-10.9998
Failed	-11
▁getParent	-11.0004
▁promotion	-11.0006
▁render	-11.001
Chain	-11.0011
▁worst	-11.0012
▁appliances	-11.0012
▁sat	-11.0017
▁DB	-11.0018
xab	-11.0018
▁Rob	-11.0022
▁stuck	-11.0023
▁2002	-11.0024
▁seeds	-11.0024
NO	-11.0026
▁golden	-11.0027
▁Credit	-11.0028
▁mile	-11.0037
▁portable	-11.0039
▁transactions	-11.0039
nAlthough	-11.004
▁browse	-11.0041
xaf	-11.0042
▁ca	-11.0045
▁organisations	-11.0046
▁customized	-11.0047
▁regardless	-11.0048
▁setProperty	-11.0055
ima	-11.006
▁distinct	-11.006
▁pursue	-11.0061
▁temporary	-11.0061
▁safely	-11.0062
▁solo	-11.0063
▁generator	-11.0071
Headers	-11.0072
▁riding	-11.0074
ancy	-11.0076
He	-11.0079
str	-11.0081
lic	-11.0082
Tab	-11.0086
PE	-11.0088
Bundle	-11.0089
▁Person	-11.0089
▁bo	-11.0091
▁Sydney	-11.0093
▁retain	-11.0093
▁workplace	-11.0093
▁examination	-11.0094
▁bid	-11.0098
▁exploring	-11.0102
▁Cook	-11.0103
400	-11.0103
▁correctly	-11.0105
▁tissue	-11.0112
▁Turn	-11.0112
▁Course	-11.0117
▁Lock	-11.0118
nMo	-11.0121
▁outcome	-11.0123
ute	-11.0123
▁repeat	-11.0124
round	-11.0125
▁Catholic	-11.0125
▁injured	-11.013
▁gaming	-11.013
▁fighting	-11.0131
ase	-11.0132
▁BE	-11.0135
▁fabulous	-11.0135
▁charity	-11.0138
▁hits	-11.014
▁gathering	-11.0141
63	-11.0142
▁tooth	-11.0143
rm	-11.0144
▁careful	-11.0145
300	-11.0146
▁Ge	-11.015
▁Mon	-11.0153
▁decode	-11.0157
nWell	-11.0157
▁engaging	-11.0158
▁twin	-11.0161
▁publish	-11.0163
▁Jim	-11.0163
▁staying	-11.017
nToday	-11.0171
Vector	-11.0171
▁Feature	-11.0172
▁employer	-11.0173
▁translation	-11.0174
▁modify	-11.0177
▁realized	-11.0184
▁Sound	-11.0185
▁indicate	-11.0185
▁operated	-11.0185
▁Products	-11.0186
IL	-11.019
▁headers	-11.0197
ram	-11.0197
▁Baby	-11.0197
▁swing	-11.0199
uc	-11.0204
▁modified	-11.0206
▁trips	-11.0206
▁Learning	-11.0209
▁Cell	-11.0209
▁disk	-11.021
73	-11.0212
▁Season	-11.0212
▁dir	-11.0214
▁sw	-11.0215
▁Forum	-11.0216
▁Down	-11.0216
71	-11.0225
nMore	-11.0233
Validation	-11.0233
▁potentially	-11.0234
cIt	-11.0234
Build	-11.0236
lum	-11.024
▁arms	-11.0242
▁65	-11.0243
▁Mal	-11.0243
▁follows	-11.0245
card	-11.0248
▁tone	-11.0249
▁detect	-11.025
ros	-11.0251
▁Chair	-11.0252
▁improvements	-11.0254
ill	-11.0255
Var	-11.0257
▁scores	-11.0258
eo	-11.026
even	-11.0263
▁displays	-11.0263
▁Blog	-11.0265
MI	-11.0265
▁Error	-11.0265
non	-11.027
▁NS	-11.027
▁Houston	-11.027
▁holder	-11.0271
▁reverse	-11.0271
▁millions	-11.0272
▁brick	-11.0273
▁Ocean	-11.0273
▁trailer	-11.0274
Stop	-11.0275
▁Give	-11.0278
▁outfit	-11.0279
▁bond	-11.028
Desc	-11.0282
▁PS	-11.0283
▁Choose	-11.0289
▁roads	-11.0292
SQL	-11.0292
▁collections	-11.0293
nMake	-11.0295
▁Section	-11.0302
58	-11.0304
nQ	-11.0306
▁hanging	-11.0308
▁Bed	-11.0309
▁situated	-11.031
Information	-11.031
ye	-11.0311
▁Member	-11.0312
TV	-11.0316
▁Kim	-11.0317
▁Administration	-11.0317
▁gender	-11.0319
spect	-11.0321
unk	-11.0321
▁Letter	-11.0323
fire	-11.0324
range	-11.033
▁olive	-11.033
▁Door	-11.0333
▁representative	-11.0333
▁peak	-11.0337
▁2016,	-11.0339
Without	-11.034
▁warning	-11.034
▁globe	-11.0341
▁accuracy	-11.0344
▁el	-11.0344
▁Range	-11.0355
▁Os	-11.0355
▁specified	-11.036
▁spoke	-11.0361
▁Far	-11.0361
▁draft	-11.0362
▁entering	-11.0363
ory	-11.0365
cut	-11.0367
Edit	-11.0367
Col	-11.0367
HA	-11.037
▁writers	-11.0373
xf	-11.0373
▁outcomes	-11.0374
▁differences	-11.0382
▁specialized	-11.0384
▁ranging	-11.0386
ient	-11.0389
▁rail	-11.0389
▁advise	-11.039
Use	-11.0392
▁Charles	-11.0398
▁calculate	-11.0398
▁calm	-11.04
▁Hard	-11.0401
▁gather	-11.0401
▁greatly	-11.0407
press	-11.0408
▁struggle	-11.041
▁controls	-11.0411
▁coaching	-11.0412
▁Theatre	-11.0413
▁leaf	-11.0413
▁forEach	-11.0414
▁Force	-11.0415
rest	-11.0421
▁Army	-11.0425
▁containing	-11.0429
▁soap	-11.0431
ture	-11.044
▁Ash	-11.044
▁compareTo	-11.0441
▁Certificate	-11.0442
Net	-11.0444
▁Ri	-11.0446
▁contribution	-11.0449
▁tail	-11.0451
▁hiring	-11.0453
▁2018.\	-11.0453
▁sensor	-11.0456
▁flying	-11.0458
▁Iterable	-11.0459
Integer	-11.0465
▁proxy	-11.0465
▁facilitate	-11.0473
▁secondary	-11.0473
▁ME	-11.048
ving	-11.0481
scale	-11.0481
vis	-11.0481
▁Challenge	-11.0483
Msg	-11.0484
▁Min	-11.0484
▁Region	-11.0486
▁HttpServlet	-11.0486
order	-11.0487
▁crash	-11.0492
▁disc	-11.0493
▁Furniture	-11.0494
▁Deprecated	-11.0496
lia	-11.0499
▁pi	-11.05
▁moves	-11.05
EP	-11.0502
▁diseases	-11.0503
▁grey	-11.0506
▁smell	-11.0507
▁documentation	-11.0509
▁~	-11.0511
▁Arizona	-11.0511
▁chances	-11.0516
▁gained	-11.0517
▁Oh	-11.0517
▁HashSet	-11.052
SD	-11.0521
▁ensures	-11.0522
▁Oct	-11.0522
▁beautifully	-11.0522
Elements	-11.0523
ston	-11.0523
▁insights	-11.0526
shire	-11.0526
▁lets	-11.0528
▁responses	-11.0529
dia	-11.053
▁exposed	-11.053
▁Irish	-11.053
od	-11.0531
Activity	-11.0534
RP	-11.0536
▁dollar	-11.0538
▁Bookmark	-11.0541
▁shirt	-11.0548
▁ByteBuffer	-11.056
▁Direct	-11.056
62	-11.056
▁Pool	-11.0565
CR	-11.0568
▁journal	-11.0568
▁highlights	-11.0569
cap	-11.0569
body	-11.0572
5,000	-11.0574
▁Beautiful	-11.0577
ans	-11.0578
▁aluminum	-11.0578
▁INSTANCE	-11.0579
68	-11.058
▁initiatives	-11.058
▁engines	-11.0582
▁canvas	-11.0584
▁accounting	-11.0584
▁gap	-11.059
EE	-11.0591
pl	-11.0594
▁gl	-11.0596
▁rec	-11.0596
▁facts	-11.0596
var	-11.0597
JSON	-11.0598
▁faces	-11.0604
▁studying	-11.0604
5)	-11.0606
cer	-11.061
▁anyway	-11.0612
▁bills	-11.0614
▁Mat	-11.0616
▁guard	-11.0618
start	-11.0621
▁Computer	-11.0624
▁Case	-11.0627
▁rated	-11.0628
▁Advanced	-11.0631
Show	-11.0631
▁stations	-11.0631
▁transformation	-11.0633
▁believed	-11.0637
Day	-11.0639
▁edited	-11.0641
▁Bu	-11.0643
▁threat	-11.0648
▁developer	-11.0649
▁promoting	-11.0649
dic	-11.0651
high	-11.0651
▁listings	-11.0655
▁Annual	-11.0656
▁designing	-11.0656
▁believes	-11.0656
▁stages	-11.0658
▁Experience	-11.0659
pers	-11.0661
▁Tax	-11.0662
▁Illinois	-11.0664
▁colleagues	-11.0666
▁locally	-11.0669
▁rid	-11.067
▁absolute	-11.067
▁carrying	-11.067
History	-11.0672
matic	-11.0673
Pair	-11.0679
▁Additionally	-11.0686
▁environments	-11.0686
▁assess	-11.0689
result	-11.0689
▁racing	-11.069
▁Miami	-11.069
▁objectives	-11.0691
▁intelligence	-11.0692
▁Remote	-11.0703
▁alter	-11.0705
nWhether	-11.0706
▁Construction	-11.0706
▁sick	-11.071
▁lemon	-11.0712
▁judge	-11.0712
▁lens	-11.0718
▁rs	-11.0718
▁focusing	-11.0719
▁NonNull	-11.0719
▁prison	-11.072
▁Common	-11.0721
▁Mass	-11.0721
▁registry	-11.0722
▁NEW	-11.0722
API	-11.0725
▁Ten	-11.0726
Db	-11.0727
▁donation	-11.0732
▁approaches	-11.0734
known	-11.0735
5%	-11.0736
▁Four	-11.0738
▁networking	-11.0738
Expected	-11.0739
▁sections	-11.0739
und	-11.0739
▁bone	-11.0741
▁newest	-11.0746
▁drawn	-11.0747
▁Mag	-11.075
▁sin	-11.075
LC	-11.0755
▁divorce	-11.0755
ENT	-11.0758
▁assigned	-11.0759
▁harm	-11.0761
OP	-11.0761
▁diversity	-11.0764
▁Website	-11.0765
▁beds	-11.0767
▁merge	-11.0769
▁getObject	-11.0771
▁acting	-11.0774
▁ending	-11.0776
▁decrease	-11.0777
▁computers	-11.0778
▁Ya	-11.0778
▁Republic	-11.0782
▁Dream	-11.0784
▁relations	-11.0786
zi	-11.0792
▁catalog	-11.0794
▁resident	-11.0795
▁explains	-11.0795
▁continuous	-11.0798
▁50%	-11.0798
▁feelings	-11.0801
▁Daniel	-11.0802
49	-11.0802
▁acts	-11.0804
▁4-	-11.0806
ona	-11.0809
▁temperatures	-11.081
▁gentle	-11.081
▁discovery	-11.0812
Period	-11.0813
▁console	-11.0816
▁demands	-11.0822
▁dump	-11.0824
▁minister	-11.0824
▁Ve	-11.0828
del	-11.0829
▁lu	-11.083
▁admit	-11.0831
▁Ti	-11.0833
Success	-11.0835
▁drama	-11.0835
ich	-11.084
ending	-11.084
▁expanded	-11.084
▁portal	-11.0841
world	-11.0844
▁Location	-11.0847
▁Golden	-11.0848
▁dentist	-11.0848
▁geo	-11.0849
play	-11.0858
▁1/2	-11.0859
▁compete	-11.086
▁Bus	-11.0862
▁Cam	-11.0863
▁deployment	-11.0865
{	-11.0866
sha	-11.0868
▁statements	-11.0871
je	-11.0873
▁dad	-11.0873
cin	-11.0873
▁retrieve	-11.0874
▁succeed	-11.0878
elle	-11.088
▁keyboard	-11.088
▁Reference	-11.0882
Rate	-11.0883
Equals	-11.0886
▁Child	-11.0887
▁relaxing	-11.0889
▁DJ	-11.0892
▁shapes	-11.0894
95\	-11.0895
▁unusual	-11.0895
Global	-11.0896
Identity	-11.0896
wear	-11.0898
▁equivalent	-11.0899
▁finishing	-11.0901
▁genuine	-11.0903
▁makeup	-11.0905
FC	-11.0907
▁layers	-11.0907
▁vibrant	-11.0908
▁conn	-11.0908
▁Eastern	-11.0908
▁GET	-11.0909
▁excess	-11.0911
▁stronger	-11.0913
minute	-11.0916
Language	-11.0916
uch	-11.0917
Topic	-11.0919
rant	-11.0922
aka	-11.0924
including	-11.0924
▁representatives	-11.093
▁boards	-11.0931
▁pets	-11.0931
Work	-11.0932
▁sophisticated	-11.0933
▁fence	-11.0935
▁TX	-11.0935
Visitor	-11.0936
▁600	-11.0936
▁enhanced	-11.0939
Http	-11.0939
▁compute	-11.094
▁mistake	-11.094
hal	-11.0941
▁mu	-11.0942
ense	-11.0943
Classes	-11.0946
▁newsletter	-11.0947
case	-11.0947
ians	-11.0951
▁Unfortunately	-11.0952
▁spectacular	-11.0952
ida	-11.0953
▁worn	-11.0955
Pos	-11.0957
▁delivers	-11.0962
▁Winter	-11.0963
▁clip	-11.0965
▁reveal	-11.0965
▁directions	-11.097
▁technicians	-11.0973
▁Stock	-11.0973
▁represented	-11.0976
DataType	-11.0979
Predicate	-11.0981
▁Ste	-11.0981
▁Scotland	-11.0982
▁lawn	-11.0984
▁Put	-11.0987
▁servers	-11.0987
▁officially	-11.0988
▁intense	-11.099
▁newInstance	-11.0991
ika	-11.0991
▁2020	-11.0992
▁mechanical	-11.0992
▁scratch	-11.0993
▁scientists	-11.0997
▁productivity	-11.0998
mate	-11.0999
ups	-11.0999
▁Express	-11.1002
▁Int	-11.1003
▁Pass	-11.1003
▁Token	-11.1004
▁translate	-11.1004
tes	-11.1005
▁amounts	-11.1006
▁Holiday	-11.1007
▁spare	-11.1007
▁Ever	-11.1008
ast	-11.1009
bu	-11.101
mat	-11.1011
▁excellence	-11.1011
▁Gas	-11.1012
▁Him	-11.1013
nJ	-11.1013
Literal	-11.1015
▁Kong	-11.1018
▁applicable	-11.102
▁abroad	-11.102
▁"/"	-11.102
▁personalized	-11.102
▁Description	-11.1021
▁twenty	-11.1023
oli	-11.1023
▁literally	-11.1026
▁subjects	-11.1027
▁Would	-11.1028
▁tackle	-11.1029
▁hundred	-11.103
▁overview	-11.103
▁sheets	-11.1032
▁photograph	-11.1033
Symbol	-11.1034
▁38	-11.1038
▁appointed	-11.1041
▁pulled	-11.1047
xtensionRegistry	-11.1049
rich	-11.1051
cus	-11.1055
▁5-	-11.1056
>"	-11.1057
▁tours	-11.1057
▁toilet	-11.106
▁legislation	-11.1062
▁cookie	-11.1063
▁maps	-11.1066
nTake	-11.1068
▁twist	-11.1069
-2	-11.1069
▁ISO	-11.1069
▁shouldn	-11.107
sville	-11.1072
▁opposite	-11.1076
▁iOS	-11.1077
Alias	-11.1077
ria	-11.1079
▁farmers	-11.1079
ku	-11.108
▁Geo	-11.1082
-4	-11.1083
_1	-11.1084
▁prompt	-11.1087
▁Jr	-11.1091
▁advantages	-11.1091
▁foam	-11.1091
Sample	-11.1093
▁tx	-11.1094
Before	-11.1094
▁walked	-11.1095
▁te	-11.1098
▁pounds	-11.1099
▁Finally	-11.11
▁Fi	-11.1104
▁basically	-11.1104
▁instruction	-11.1107
▁rapidly	-11.1112
▁pit	-11.1117
▁graduated	-11.1118
▁Database	-11.1119
▁ro	-11.112
nthe	-11.112
stream	-11.1122
▁rolling	-11.1123
▁0.0	-11.1128
▁attr	-11.1128
▁alive	-11.113
▁Ministry	-11.1133
▁fluid	-11.1135
▁languages	-11.1136
▁childhood	-11.1137
Entries	-11.1139
▁rising	-11.1139
▁broadcast	-11.1139
ome	-11.1142
▁2017.	-11.1142
yo	-11.1143
wan	-11.1145
▁Dog	-11.1145
▁reaching	-11.1149
month	-11.115
▁lies	-11.115
Groups	-11.1152
▁Val	-11.1155
▁Print	-11.1156
▁Wild	-11.1159
▁bass	-11.1159
▁Duration	-11.1159
Metrics	-11.1163
▁employers	-11.1164
▁Bell	-11.1169
▁cabinets	-11.1173
▁Still	-11.1173
▁mounted	-11.1174
zy	-11.1177
▁complicated	-11.1185
Snapshot	-11.1186
▁garlic	-11.1188
▁Feb	-11.1188
▁demonstrate	-11.1193
▁Bad	-11.1196
die	-11.1198
▁screening	-11.12
▁Electric	-11.1202
▁engineers	-11.1204
▁manufactured	-11.1204
69	-11.1207
▁terminal	-11.1208
any	-11.121
▁utilize	-11.1211
▁tablet	-11.1211
nGreat	-11.1211
▁breaking	-11.1212
▁contained	-11.1217
▁copyright	-11.1218
▁salad	-11.1218
winning	-11.1219
person	-11.1221
▁Host	-11.1222
Agent	-11.1224
▁winners	-11.1226
▁auction	-11.1229
ake	-11.123
▁Simply	-11.1231
DO	-11.1234
▁victim	-11.1238
fo	-11.1238
▁assertNull	-11.1242
▁grill	-11.1243
▁Magazine	-11.1251
▁Hong	-11.1265
6)	-11.1266
pin	-11.1267
▁vertical	-11.1269
▁Korea	-11.127
▁2015,	-11.127
▁eliminate	-11.1272
EA	-11.1273
▁Being	-11.1273
lit	-11.1273
▁endpoint	-11.1281
▁Generic	-11.1281
▁studied	-11.1283
ius	-11.1286
▁Ken	-11.1289
Attr	-11.1292
ski	-11.1293
▁slip	-11.1294
▁raising	-11.1296
▁peer	-11.1296
▁anxiety	-11.1297
▁southern	-11.1297
▁nail	-11.1297
Float	-11.1298
▁performances	-11.1302
▁Mother	-11.1304
▁clubs	-11.1305
▁characteristics	-11.1306
▁Annotation	-11.1308
▁matcher	-11.1308
ep	-11.1309
▁Safe	-11.1311
▁Pack	-11.1315
▁cooked	-11.1317
▁franchise	-11.1317
▁flu	-11.1322
▁signing	-11.1323
Proto	-11.1323
▁Pick	-11.1324
mas	-11.1325
▁Player	-11.1326
▁Cleaning	-11.1327
UN	-11.1328
▁Sample	-11.1329
▁bomb	-11.1329
▁arguments	-11.1331
▁jaw	-11.1333
mor	-11.1333
▁Yu	-11.1333
▁falling	-11.1335
▁1.5	-11.1337
Columns	-11.1339
▁Float	-11.134
▁grip	-11.134
ById	-11.1347
▁curriculum	-11.1349
▁examine	-11.135
▁closet	-11.1354
▁possibilities	-11.1355
▁limits	-11.1357
▁Organization	-11.1359
▁holes	-11.1361
▁interaction	-11.1364
}"	-11.1365
▁heads	-11.1367
▁math	-11.1369
db	-11.1372
Matcher	-11.1373
put	-11.1373
▁behaviour	-11.1379
▁permalink	-11.1379
▁vinyl	-11.1379
master	-11.138
▁Justice	-11.138
▁circle	-11.138
elli	-11.1385
▁chest	-11.1387
Payload	-11.1388
iness	-11.1388
ali	-11.1389
▁settlement	-11.139
▁$10	-11.139
▁efficiently	-11.1392
▁Palm	-11.1393
▁font	-11.1393
▁yards	-11.1395
▁scrap	-11.1396
▁Boy	-11.1396
yan	-11.1397
▁strongly	-11.1397
▁fitted	-11.1397
▁strive	-11.1398
▁interact	-11.1399
nEvery	-11.1401
▁Za	-11.1402
▁suggests	-11.1406
▁provision	-11.1408
▁wake	-11.1411
▁Halloween	-11.1412
▁occurred	-11.1414
Notification	-11.1419
▁arrangements	-11.1421
▁Easter	-11.1422
▁contents	-11.1423
▁restoration	-11.1425
▁emails	-11.1426
▁reaction	-11.1427
▁amongst	-11.1431
▁tube	-11.1431
▁mi	-11.1431
rated	-11.1433
▁del	-11.1435
Messages	-11.1436
▁worship	-11.1437
▁Vegas	-11.1437
▁Want	-11.1438
▁illegal	-11.1439
▁satellite	-11.1443
▁shelter	-11.1443
▁Taylor	-11.1444
▁Sport	-11.1446
▁Pennsylvania	-11.1449
▁moisture	-11.1449
▁Edge	-11.1449
▁prayer	-11.145
▁nose	-11.1451
ION	-11.1451
▁heritage	-11.1452
Complete	-11.1453
Fail	-11.1456
▁wheels	-11.1458
IR	-11.1458
▁fiber	-11.1462
▁44	-11.1462
▁Rev	-11.1464
▁handy	-11.1466
▁artistic	-11.1467
▁themes	-11.1468
▁nights	-11.147
▁Mock	-11.1471
▁Mer	-11.1472
cur	-11.1473
front	-11.1473
▁Las	-11.1476
▁Resort	-11.1476
Display	-11.1477
Obj	-11.1478
▁emphasis	-11.1478
Player	-11.148
BS	-11.1481
▁Protection	-11.1482
▁Del	-11.1484
▁toys	-11.1487
▁bunch	-11.1487
▁navigate	-11.1487
▁washing	-11.1488
▁headed	-11.1488
▁Cool	-11.1489
Email	-11.1489
▁tender	-11.149
▁expressed	-11.1492
▁Ham	-11.1493
▁worker	-11.1493
▁Ag	-11.1494
▁Grant	-11.1495
▁bulk	-11.1498
▁Louis	-11.15
▁Hills	-11.15
▁summary	-11.1502
▁grateful	-11.1502
▁podcast	-11.1502
▁hook	-11.1502
▁snap	-11.1507
gram	-11.1507
▁liability	-11.1508
▁analyze	-11.151
▁250	-11.1511
MENT	-11.1514
▁sad	-11.1515
▁ratings	-11.1515
▁getPath	-11.1517
▁operational	-11.1517
Signature	-11.1519
▁broker	-11.1524
itch	-11.1528
tis	-11.153
▁Victoria	-11.153
▁editing	-11.1534
▁buyer	-11.1536
Driver	-11.1536
▁rows	-11.1537
▁Em	-11.1537
▁Son	-11.1537
▁hi	-11.154
▁basketball	-11.1544
▁Driver	-11.1546
▁Meta	-11.1547
▁Roman	-11.1548
▁attract	-11.155
eh	-11.1552
nOver	-11.1552
Person	-11.1553
▁Body	-11.1557
?"	-11.1557
▁sexual	-11.156
▁financing	-11.1561
▁meters	-11.1563
▁defaultValue	-11.1564
▁contractor	-11.1567
Full	-11.1569
▁announcement	-11.1571
▁Joseph	-11.1573
oh	-11.1574
Owner	-11.1578
▁Holy	-11.1579
▁generic	-11.1582
4)	-11.1584
▁Vol	-11.1585
▁Clear	-11.1585
nStep	-11.1586
▁faced	-11.1589
▁illness	-11.1591
▁plane	-11.1593
▁Austin	-11.1594
OW	-11.1595
▁Pu	-11.1596
▁li	-11.1597
▁fifth	-11.1597
▁Daily	-11.16
▁Equipment	-11.16
▁complement	-11.1602
▁lists	-11.1604
▁nursing	-11.1606
▁versatile	-11.1606
▁tonight	-11.1609
▁rapid	-11.161
node	-11.1611
▁stability	-11.1613
▁Ser	-11.1614
ira	-11.1615
▁shelf	-11.1616
▁knowledgeable	-11.1617
ev	-11.1617
▁soup	-11.1617
print	-11.1619
▁processed	-11.162
▁somewhat	-11.162
UR	-11.1624
open	-11.1626
▁reserve	-11.1626
▁columns	-11.1634
vy	-11.1634
▁2.	-11.1635
▁Spirit	-11.1636
▁filters	-11.1639
▁lounge	-11.1639
Master	-11.164
29	-11.1642
Delay	-11.1643
▁Nor	-11.1643
▁Wind	-11.1644
Accept	-11.1644
-8	-11.1646
nWhere	-11.1647
▁instantly	-11.1649
Widget	-11.1651
▁Columbia	-11.1653
rit	-11.1653
0_	-11.1654
▁shut	-11.1655
▁BA	-11.1656
hole	-11.1662
▁Industry	-11.1662
▁strange	-11.1663
▁Kar	-11.1663
▁shutdown	-11.1663
▁claimed	-11.1664
▁GA	-11.1664
▁Vo	-11.1665
Init	-11.167
▁completing	-11.1672
bra	-11.1679
▁1990	-11.1679
Back	-11.1683
▁deeper	-11.1684
▁Nick	-11.1687
▁Remember	-11.1688
▁getContextType	-11.1689
▁quantity	-11.1691
▁consistently	-11.1692
ico	-11.1697
▁Iron	-11.1699
▁crystal	-11.1699
▁pitch	-11.17
nMa	-11.17
now	-11.17
ain	-11.17
▁Britain	-11.1706
nch	-11.1706
▁beaches	-11.1707
▁pub	-11.1709
Children	-11.171
▁pilot	-11.1711
▁Round	-11.1712
▁loaded	-11.1715
▁anymore	-11.1716
▁archive	-11.1716
▁frequency	-11.1718
▁Vector	-11.1718
▁locale	-11.172
-11	-11.172
▁Fox	-11.172
▁apartments	-11.1722
▁parks	-11.1722
▁passengers	-11.1724
Can	-11.1725
sey	-11.1727
▁edges	-11.1732
▁120	-11.1732
▁PARSER	-11.1733
▁robust	-11.1733
▁contributions	-11.1734
▁blow	-11.1735
AA	-11.1735
▁distributed	-11.1736
▁theatre	-11.1737
▁vendors	-11.1738
▁Share	-11.1739
Resources	-11.174
ALL	-11.174
ony	-11.174
▁tired	-11.1742
gal	-11.1745
▁UUID	-11.1746
▁adds	-11.1746
▁murder	-11.1747
▁emerging	-11.1748
▁sought	-11.1749
▁persons	-11.175
Word	-11.175
▁aimed	-11.1752
ef	-11.1752
▁wildlife	-11.1754
▁Assistant	-11.1755
▁fl	-11.1757
▁Invalid	-11.1758
▁assembly	-11.176
als	-11.176
▁subscribe	-11.1761
args	-11.1762
oma	-11.1762
▁Edition	-11.1768
▁vo	-11.177
▁XmlBeans	-11.1772
ches	-11.1773
Authentication	-11.1775
nMr	-11.1775
▁Enterprise	-11.1776
▁specifications	-11.1778
▁await	-11.1783
ington	-11.1788
▁copper	-11.1788
Amount	-11.1789
▁Virtual	-11.1789
▁photographer	-11.1789
gs	-11.179
▁Though	-11.1792
▁fault	-11.1793
▁Finance	-11.1793
▁10%	-11.1793
▁initially	-11.1794
▁MI	-11.1798
▁imp	-11.181
nEven	-11.1812
NotFound	-11.1812
▁Collectors	-11.1813
▁strain	-11.1813
tive	-11.1816
▁union	-11.1818
▁getAttribute	-11.1821
▁romantic	-11.1821
▁wondering	-11.1823
▁instrument	-11.1825
she	-11.1826
▁cameras	-11.1826
this	-11.1827
▁cooperation	-11.1827
▁removing	-11.1827
-20	-11.1829
▁acquired	-11.1831
▁crown	-11.1831
Zone	-11.1832
din	-11.1833
▁Hollywood	-11.1833
▁extent	-11.1834
▁institution	-11.1837
▁Stop	-11.1839
▁lightweight	-11.184
▁Marine	-11.1842
Sync	-11.1842
string	-11.1845
▁scenes	-11.1845
▁attach	-11.1845
MB	-11.1846
▁importantly	-11.1853
▁hosts	-11.1854
▁occurs	-11.1854
Args	-11.1857
▁Tag	-11.1858
▁Im	-11.1862
▁tiles	-11.1863
▁cabin	-11.1863
Certificate	-11.1867
▁instruments	-11.187
▁VA	-11.1875
3)	-11.1875
▁si	-11.1879
▁concentration	-11.1879
▁deeply	-11.1882
▁Engine	-11.1883
▁Cur	-11.1884
▁constructed	-11.1885
▁politics	-11.1885
Layer	-11.1887
▁Metal	-11.1887
▁roots	-11.189
▁beef	-11.189
Conf	-11.1892
xaa	-11.1895
▁Hair	-11.1896
▁consult	-11.1899
▁strengthen	-11.19
ila	-11.19
▁Language	-11.19
where	-11.1902
▁Agent	-11.1902
▁AL	-11.1903
▁mess	-11.1904
▁Creative	-11.1904
▁Money	-11.1904
▁drill	-11.1904
▁seller	-11.1905
▁fleet	-11.1909
▁laid	-11.1909
▁Trans	-11.191
▁victims	-11.1911
▁Repository	-11.1913
bal	-11.1915
las	-11.1915
▁EP	-11.1915
▁precious	-11.1916
iff	-11.192
▁attitude	-11.1921
▁dispose	-11.1928
▁Seattle	-11.1928
▁shine	-11.193
-7	-11.1931
▁startsWith	-11.1932
▁blind	-11.1933
Edge	-11.1933
PI	-11.1934
▁hesitate	-11.1934
▁hub	-11.1939
▁hike	-11.194
▁optimal	-11.1941
▁Dark	-11.1941
▁pie	-11.1944
▁Clean	-11.1945
▁supplied	-11.1947
▁literature	-11.1947
▁swim	-11.1948
nOther	-11.195
▁Diego	-11.195
sta	-11.1951
▁placement	-11.1953
▁findings	-11.1955
▁Ju	-11.1955
▁Delhi	-11.1956
LI	-11.1962
▁Angel	-11.1963
EX	-11.1965
▁charm	-11.1967
▁Oregon	-11.1968
▁nutrition	-11.1969
flow	-11.1969
col	-11.1971
FF	-11.1971
▁Premier	-11.1972
▁Tea	-11.1973
▁thrown	-11.1973
▁scenario	-11.1974
▁tri	-11.1976
that	-11.1981
▁expr	-11.1983
▁Restaurant	-11.1986
screen	-11.1986
▁Rs	-11.1987
select	-11.1987
ison	-11.1988
ign	-11.1989
burg	-11.199
▁Secretary	-11.1991
▁bench	-11.1993
game	-11.1997
phone	-11.2
▁applies	-11.2
▁Er	-11.2001
Pass	-11.2002
▁Side	-11.2004
▁ne	-11.2006
▁Reader	-11.2007
▁honey	-11.2008
▁Build	-11.2009
▁Greek	-11.2009
▁Alex	-11.201
step	-11.2011
▁clinic	-11.2013
▁labels	-11.2016
▁scroll	-11.2022
▁Age	-11.2024
▁experiment	-11.2024
▁3,	-11.2028
▁Dance	-11.2031
▁medication	-11.2031
▁timestamp	-11.2031
▁cheaper	-11.2032
Available	-11.2032
▁ministry	-11.2034
bus	-11.2035
yard	-11.2038
▁Ave	-11.2038
Site	-11.204
▁AI	-11.2041
burn	-11.2042
Commit	-11.2042
Has	-11.2047
ert	-11.2047
▁cord	-11.2049
▁Senate	-11.205
▁granted	-11.2051
▁Follow	-11.2052
▁Youth	-11.2053
zer	-11.2055
vers	-11.2057
nto	-11.2059
▁Phone	-11.206
▁pa	-11.206
nand	-11.2063
ANT	-11.2069
check	-11.207
▁apple	-11.2071
▁conclusion	-11.2071
▁targeted	-11.2073
▁Certified	-11.2074
▁Manchester	-11.2075
▁Complete	-11.2075
▁JsonProperty	-11.2076
▁1.0	-11.2077
▁Galaxy	-11.2078
▁abstract	-11.2078
▁Everyone	-11.208
▁uniform	-11.2081
week	-11.2082
▁Ryan	-11.2083
▁condo	-11.2086
▁Panel	-11.2086
▁accomplish	-11.2088
▁WordPress	-11.209
su	-11.2093
▁shoulder	-11.2095
gue	-11.2099
▁copies	-11.21
▁bay	-11.2103
AB	-11.2104
▁beans	-11.2106
▁rough	-11.2106
▁banking	-11.2107
▁getNode	-11.2108
▁pe	-11.2109
▁humans	-11.2111
nMar	-11.2112
dr	-11.2114
▁41	-11.2115
▁stir	-11.2117
wide	-11.2118
▁lasting	-11.2118
▁lookup	-11.2118
Star	-11.2121
pr	-11.2122
▁spell	-11.2126
▁AR	-11.2126
▁sq	-11.2126
ren	-11.2129
PT	-11.213
▁Flow	-11.213
load	-11.2132
▁consulting	-11.2135
▁fa	-11.2136
▁Melbourne	-11.2137
▁luxurious	-11.214
▁surrounded	-11.2141
▁powered	-11.2142
▁Device	-11.2142
▁investments	-11.2143
▁Ban	-11.2143
▁bite	-11.2144
ack	-11.2144
ui	-11.2145
SM	-11.2146
Bo	-11.2147
▁01	-11.2148
och	-11.2148
▁donations	-11.2149
Score	-11.215
▁prescription	-11.215
ei	-11.2151
▁artificial	-11.2151
▁pleasant	-11.2152
▁opens	-11.2152
▁Yo	-11.2154
Declaration	-11.2156
CM	-11.2158
Total	-11.2159
▁1999	-11.2159
action	-11.216
ral	-11.216
Constraint	-11.2163
aging	-11.2164
CL	-11.2164
▁jacket	-11.2165
▁sing	-11.2167
▁getFile	-11.2169
▁lamp	-11.217
▁arch	-11.2173
▁Ann	-11.2174
▁experiencing	-11.2178
▁Route	-11.2179
▁tons	-11.2179
▁6.	-11.2179
▁integrate	-11.2179
▁sectors	-11.218
▁deploy	-11.2181
▁arrested	-11.2182
bl	-11.2182
▁respectively	-11.2182
▁produces	-11.2185
roll	-11.2185
Summary	-11.2186
▁cats	-11.2186
▁Cu	-11.2187
▁setName	-11.2189
html	-11.2189
▁Floor	-11.2191
▁getService	-11.2195
▁bands	-11.2197
▁printable	-11.2197
▁Ontario	-11.2201
Ip	-11.2203
position	-11.2203
▁neutral	-11.2203
▁2-	-11.2203
nor	-11.2206
dir	-11.2207
Argument	-11.2209
ML	-11.2209
▁suffered	-11.221
85\	-11.2211
▁Format	-11.2213
▁Pair	-11.2216
▁strip	-11.2217
▁Front	-11.2218
power	-11.2218
▁lawyers	-11.2218
▁SD	-11.2221
ular	-11.2223
▁thoroughly	-11.2224
▁Trail	-11.2224
▁precision	-11.2228
▁stats	-11.2228
hold	-11.2229
▁iconic	-11.223
▁aged	-11.223
▁Fresh	-11.223
▁assured	-11.2233
ail	-11.2235
▁Atlanta	-11.2235
▁Roll	-11.2236
▁FROM	-11.2236
Criteria	-11.2237
▁finger	-11.224
▁fileName	-11.224
▁Tra	-11.2241
tar	-11.2241
▁mar	-11.2241
▁Statement	-11.2245
▁abilities	-11.2248
▁sole	-11.2254
eb	-11.2255
piece	-11.2255
▁visits	-11.2258
▁Ask	-11.2259
▁TR	-11.226
▁Industrial	-11.226
▁TEST	-11.2263
PER	-11.2263
▁Wine	-11.2265
▁Environment	-11.2266
school	-11.2267
▁combat	-11.227
▁harder	-11.2271
Section	-11.2271
host	-11.2271
km	-11.2272
ching	-11.2275
▁Us	-11.2276
▁Ku	-11.2277
▁wanting	-11.228
▁Ray	-11.2281
NET	-11.2284
▁actively	-11.2284
▁Quick	-11.2285
ened	-11.2286
▁ge	-11.2287
att	-11.2289
▁capability	-11.2291
hill	-11.2292
▁dec	-11.2293
▁cooling	-11.2296
▁consume	-11.2299
sized	-11.2302
▁moon	-11.2303
▁Fan	-11.2303
▁rank	-11.2303
▁Char	-11.2308
▁overnight	-11.2308
Click	-11.2309
▁connecting	-11.231
▁northern	-11.2312
ink	-11.2314
▁impression	-11.2315
▁mountains	-11.2316
▁installing	-11.2319
▁ill	-11.2319
▁gardens	-11.232
▁Dun	-11.232
▁coal	-11.2322
▁lie	-11.2322
▁Self	-11.2323
▁fe	-11.2324
▁plumbing	-11.2325
▁Dallas	-11.2328
▁watched	-11.2329
▁Talk	-11.233
ect	-11.233
▁Ci	-11.2332
bank	-11.2335
nBefore	-11.2338
fit	-11.234
▁identifier	-11.2341
stop	-11.2344
▁mono	-11.2346
▁coupons	-11.2346
▁pad	-11.2346
▁den	-11.2348
▁shoe	-11.2348
▁universities	-11.2351
▁diabetes	-11.2354
▁singing	-11.2355
▁os	-11.2357
97\	-11.2358
▁muscles	-11.2358
▁Cut	-11.236
▁salary	-11.2361
▁Latin	-11.2361
▁Bedroom	-11.2364
▁piano	-11.2365
▁NA	-11.2365
▁Phil	-11.2367
▁Mail	-11.2368
Menu	-11.2371
ening	-11.2373
▁grinding	-11.2373
▁philosophy	-11.2373
▁52	-11.2375
▁recall	-11.2376
▁entitled	-11.2377
▁campaigns	-11.2377
AN	-11.2378
▁western	-11.2378
▁Memorial	-11.238
▁titles	-11.2382
IVE	-11.2383
▁paintings	-11.2383
▁Orange	-11.2386
▁Vice	-11.2388
▁locate	-11.2389
▁sorry	-11.2393
▁auth	-11.2394
▁adapter	-11.2397
CD	-11.2397
▁newspaper	-11.24
▁surfaces	-11.2403
UP	-11.2406
▁nuclear	-11.2409
▁workflow	-11.2409
▁tray	-11.241
▁preserve	-11.2411
▁inspiring	-11.2412
Exists	-11.2413
IF	-11.2414
pen	-11.2415
▁fieldName	-11.2416
▁conventional	-11.242
ration	-11.2422
▁Eric	-11.2423
▁entertaining	-11.2423
▁seating	-11.2423
▁generous	-11.2424
els	-11.2425
▁mistakes	-11.2426
▁AD	-11.2428
▁afraid	-11.2428
Main	-11.2429
▁prints	-11.2429
▁strike	-11.2434
▁Email	-11.2435
▁ultra	-11.2438
▁Euro	-11.2439
▁getSource	-11.244
▁remained	-11.244
Socket	-11.2441
▁Wisconsin	-11.2441
▁deserve	-11.2442
▁Zone	-11.2444
nRa	-11.2445
▁Chapter	-11.2445
▁Bag	-11.2447
▁Connect	-11.245
nOh	-11.245
mont	-11.2452
Connect	-11.2455
ken	-11.2456
▁Due	-11.2458
▁Such	-11.2459
Throw	-11.246
▁boots	-11.2462
▁ByteArray	-11.2465
▁religion	-11.2467
▁Mrs	-11.2468
▁hack	-11.247
▁thorough	-11.247
▁fastest	-11.247
Uuid	-11.2472
OC	-11.2472
sky	-11.2473
ied	-11.2475
EST	-11.2476
▁workout	-11.2477
▁heater	-11.2477
▁Moon	-11.2477
▁endless	-11.248
▁enforcement	-11.2481
▁tourist	-11.2482
▁assignment	-11.2482
▁meaningful	-11.2482
▁chip	-11.2483
▁laugh	-11.2484
▁Jewish	-11.2487
▁fake	-11.2487
▁infection	-11.2489
ways	-11.2489
▁maker	-11.2493
▁struggling	-11.2497
▁showcase	-11.2497
▁stroke	-11.2498
Go	-11.2498
▁enjoyable	-11.2502
▁integrity	-11.2503
▁Package	-11.2504
▁investing	-11.2506
▁className	-11.2507
▁Based	-11.2508
Down	-11.2512
▁Minnesota	-11.2513
▁Pakistan	-11.2516
▁Stephen	-11.2517
▁Module	-11.2517
ike	-11.2518
▁Craft	-11.2518
▁frequent	-11.2519
▁chronic	-11.252
▁Yet	-11.2523
▁tailored	-11.2531
take	-11.2532
▁obviously	-11.2533
▁shipped	-11.2534
▁priced	-11.2534
aver	-11.2534
▁Springs	-11.2538
ache	-11.2539
▁premier	-11.254
▁Platform	-11.254
▁talked	-11.2542
▁dimensions	-11.2544
boy	-11.2545
api	-11.2546
▁arranged	-11.2547
media	-11.2548
▁broke	-11.2548
▁streaming	-11.2549
▁HR	-11.255
▁Study	-11.2551
oy	-11.2553
Sort	-11.2563
▁dimension	-11.2564
avi	-11.2567
▁chemicals	-11.2568
▁conditioning	-11.2571
▁ja	-11.2573
▁sufficient	-11.2573
▁Cape	-11.2575
rum	-11.2576
▁necessarily	-11.2582
▁combines	-11.2582
ime	-11.2583
ONE	-11.2584
▁decline	-11.2586
▁decent	-11.2586
▁celebrated	-11.2588
▁yield	-11.2588
▁loud	-11.2589
▁IL	-11.2591
▁ni	-11.2592
▁Shi	-11.2593
▁Regional	-11.2594
American	-11.2594
▁WA	-11.2596
▁pray	-11.2597
▁equally	-11.2598
▁userId	-11.2599
▁Doctor	-11.2601
▁explanation	-11.2602
▁batteries	-11.2603
▁getBytes	-11.2604
▁profiles	-11.2609
<	-11.261
▁ceramic	-11.2612
▁operates	-11.2612
▁interviews	-11.2613
▁Working	-11.2613
vent	-11.2615
mel	-11.2616
LS	-11.2616
▁Brian	-11.2618
▁Chamber	-11.2619
DataSource	-11.2623
▁acres	-11.2623
▁HTML	-11.2624
▁competitors	-11.2624
▁ownership	-11.2627
▁colorful	-11.2627
▁Remove	-11.2634
▁Metadata	-11.2634
▁precise	-11.2634
ua	-11.2634
▁Resources	-11.2635
▁Performance	-11.2635
▁BC	-11.2636
anna	-11.2638
▁Practice	-11.2638
▁Bowl	-11.2639
▁Magic	-11.2644
An	-11.2644
▁Dimension	-11.2645
▁CON	-11.2645
▁athletes	-11.2647
▁Va	-11.2647
▁oral	-11.2648
▁outer	-11.2649
Mo	-11.2649
▁aggregate	-11.265
▁2.5	-11.2651
▁tear	-11.2652
▁Fashion	-11.2655
▁happiness	-11.2655
BO	-11.266
▁proceed	-11.2662
▁Thus	-11.2664
face	-11.2668
ame	-11.2669
▁involve	-11.2672
only	-11.2673
inter	-11.2674
ato	-11.2678
lam	-11.2679
eal	-11.2681
▁Donald	-11.2681
nWho	-11.2681
▁widget	-11.2682
▁Bull	-11.2684
Constructor	-11.2687
pos	-11.2687
bury	-11.2687
▁dough	-11.2687
▁depression	-11.2689
mann	-11.2691
▁cl	-11.2692
▁serialize	-11.2694
▁receiver	-11.2698
nGo	-11.2699
▁2016.	-11.2703
▁largely	-11.2706
▁Planning	-11.2706
nPro	-11.2708
▁expanding	-11.2708
▁organize	-11.2715
▁letting	-11.2717
▁respective	-11.2721
▁guides	-11.2721
nCo	-11.2722
▁cuts	-11.2723
▁Container	-11.2723
▁balanced	-11.2724
▁climb	-11.2724
▁Story	-11.2725
▁sl	-11.2726
▁strict	-11.2727
gh	-11.2729
▁Gra	-11.273
▁fraud	-11.2732
rock	-11.2734
▁Final	-11.2735
nMe	-11.2737
▁elected	-11.2738
nOf	-11.2739
▁Exam	-11.2739
▁predict	-11.2741
▁Hol	-11.2742
▁dealer	-11.2744
nCon	-11.2746
▁Jay	-11.2747
OF	-11.2748
▁43	-11.2749
▁Ty	-11.275
Any	-11.2751
▁Without	-11.2752
▁7.	-11.2753
▁Below	-11.2753
▁appreciated	-11.2754
▁tutorial	-11.2755
▁fo	-11.2756
away	-11.2764
▁rep	-11.2766
ister	-11.2767
ust	-11.277
lly	-11.2775
ae	-11.2776
Metric	-11.2776
▁tension	-11.2777
nis	-11.2778
▁protecting	-11.2781
nV	-11.2781
rah	-11.2782
▁relaxed	-11.2784
ography	-11.2785
▁equity	-11.2789
▁2014,	-11.2789
▁Gi	-11.279
▁renowned	-11.279
nal	-11.2791
▁superb	-11.2795
under	-11.2797
▁observed	-11.2801
St	-11.2801
Logger	-11.2802
▁absorb	-11.2803
▁overcome	-11.281
DR	-11.2813
▁Father	-11.282
▁cloth	-11.282
▁prevention	-11.2821
shop	-11.2822
▁tableName	-11.2824
▁Gre	-11.2825
FileName	-11.2829
▁thousand	-11.283
▁exclusively	-11.2831
Tool	-11.2832
Home	-11.2832
▁jam	-11.2832
Registration	-11.2833
nSa	-11.2837
▁exercises	-11.2838
▁pc	-11.2838
onic	-11.2839
▁Title	-11.2841
▁Locale	-11.2842
Icon	-11.2844
-18	-11.2844
▁2019.\	-11.2846
nAny	-11.2847
▁shock	-11.2849
▁Match	-11.285
▁Commercial	-11.2851
▁TimeUnit	-11.2851
▁oils	-11.2851
▁emotions	-11.2852
▁discussions	-11.2853
▁differ	-11.2854
BI	-11.2855
▁regulatory	-11.2858
▁reminder	-11.2859
▁Role	-11.2859
▁composite	-11.286
ELL	-11.2861
eng	-11.2861
0.0	-11.2865
true	-11.2866
▁vacuum	-11.2866
nRead	-11.2868
▁Meeting	-11.2869
▁Mix	-11.2872
Usage	-11.2877
▁Fun	-11.2877
▁resistant	-11.2877
▁promo	-11.2878
▁operators	-11.2881
Delegate	-11.2882
▁customize	-11.2883
/2	-11.2885
▁knee	-11.2885
▁fruits	-11.2885
▁ranked	-11.2886
Safe	-11.2886
▁mapper	-11.2887
▁modules	-11.2889
doc	-11.289
▁fi	-11.2892
▁gray	-11.2895
▁wider	-11.2896
▁animation	-11.2897
▁DIY	-11.2898
tte	-11.2902
▁Championship	-11.2903
▁hospitals	-11.2905
Dis	-11.2905
▁basement	-11.291
nLearn	-11.2911
watch	-11.2911
▁dirt	-11.2911
sum	-11.2912
▁employed	-11.2913
▁flood	-11.2916
▁bottles	-11.2918
lap	-11.292
▁1998	-11.2921
▁pregnancy	-11.2924
▁attractions	-11.2924
▁timely	-11.2925
ToString	-11.2929
▁Rule	-11.293
▁reliability	-11.2931
bs	-11.2931
▁ext	-11.2932
▁hopefully	-11.2932
most	-11.2934
▁supplement	-11.2936
▁Sp	-11.2937
▁adjustable	-11.2939
▁Miss	-11.2942
BE	-11.2944
▁marine	-11.2946
▁ver	-11.2947
▁drives	-11.2947
▁province	-11.2948
▁NullPointer	-11.2948
▁gathered	-11.2948
▁delighted	-11.2949
▁fer	-11.2949
ora	-11.2951
nar	-11.2954
▁structural	-11.2954
Missing	-11.2955
▁admission	-11.2955
▁Prince	-11.2957
▁Eye	-11.2958
▁collaborative	-11.2958
▁fascinating	-11.2958
▁workforce	-11.2959
▁Cash	-11.2959
La	-11.296
▁Pattern	-11.296
▁floral	-11.2966
▁patent	-11.2971
NT	-11.2975
▁memorable	-11.2975
▁spin	-11.2976
▁Cluster	-11.2978
▁alike	-11.2978
▁Fit	-11.2981
ulation	-11.2984
▁jet	-11.2987
▁references	-11.2988
▁frames	-11.2989
ec	-11.2992
▁survive	-11.2993
tag	-11.2994
▁sentence	-11.2995
▁Motor	-11.2997
Fragment	-11.3
oz	-11.3
call	-11.3002
▁chips	-11.3002
▁Dave	-11.3003
▁vice	-11.3005
▁baseball	-11.3005
rim	-11.301
▁sized	-11.301
▁impressed	-11.3011
nLove	-11.3012
aire	-11.3012
▁Screen	-11.3014
▁360	-11.3014
nLooking	-11.3017
Events	-11.3019
▁bet	-11.3019
▁fold	-11.302
▁Think	-11.3025
▁snapshot	-11.3026
▁parallel	-11.3027
▁Kevin	-11.3032
▁picking	-11.3032
▁diagnosis	-11.3034
Span	-11.3036
▁ink	-11.3038
▁err	-11.3038
▁qualify	-11.3039
▁lady	-11.3039
OB	-11.3042
▁trick	-11.3043
▁800	-11.3043
▁coating	-11.3046
eau	-11.3047
▁legacy	-11.3048
yn	-11.3055
▁regard	-11.3057
stein	-11.3058
▁tennis	-11.3062
ush	-11.3063
▁retailers	-11.3063
▁jar	-11.3064
lim	-11.3067
fu	-11.3067
▁dest	-11.3069
Principal	-11.3069
▁dose	-11.307
▁laundry	-11.3072
kar	-11.3072
▁cal	-11.3074
Unique	-11.3074
▁ve	-11.3075
▁adopted	-11.3079
▁Malaysia	-11.308
Tuple	-11.3081
▁packet	-11.3082
▁prominent	-11.3082
▁permit	-11.3083
ace	-11.3086
▁captured	-11.3087
0%	-11.3087
▁Adam	-11.3088
hl	-11.3089
▁ob	-11.3089
Vertex	-11.309
Clause	-11.3093
▁slide	-11.3093
▁Arch	-11.3096
Monitor	-11.3097
▁coconut	-11.3103
Allowed	-11.3103
nOr	-11.3106
▁Civil	-11.3107
config	-11.3107
cra	-11.3108
eu	-11.3109
▁nodes	-11.311
▁Manual	-11.3112
▁Pri	-11.3113
▁getTime	-11.3114
▁blast	-11.3114
▁crack	-11.3114
Subject	-11.3116
▁profession	-11.3116
▁Jordan	-11.3116
▁converter	-11.3118
dom	-11.3119
▁shed	-11.3119
Visible	-11.312
▁Rich	-11.312
▁representing	-11.3121
num	-11.3122
▁mac	-11.3126
▁Cast	-11.3126
▁Coffee	-11.3128
▁lawsuit	-11.3128
▁mattress	-11.3131
▁purchases	-11.3131
▁Api	-11.3132
▁substantial	-11.3135
fall	-11.3136
RT	-11.3136
Font	-11.3136
▁downloaded	-11.3136
▁administrative	-11.3138
▁CR	-11.3138
▁magical	-11.3139
▁cleaner	-11.3141
▁companion	-11.3141
dal	-11.3146
▁suspect	-11.3147
Right	-11.3149
▁Everything	-11.3149
▁investigate	-11.3149
cia	-11.3149
iving	-11.315
craft	-11.3151
anda	-11.3151
▁seasons	-11.3155
ough	-11.3158
▁wins	-11.3159
▁flags	-11.3159
▁backyard	-11.316
▁pdf	-11.3161
▁incorporate	-11.3161
▁Dead	-11.3162
▁intend	-11.3163
▁roller	-11.3166
▁addressed	-11.3168
esh	-11.317
▁wise	-11.3172
▁tourism	-11.3173
AsString	-11.3174
▁seal	-11.3174
▁tin	-11.3175
▁formation	-11.3177
▁Jeff	-11.3179
▁Walk	-11.3187
▁disabled	-11.3192
element	-11.3193
▁Casino	-11.3194
▁Within	-11.3195
bridge	-11.3202
itis	-11.3203
▁Tool	-11.3208
add	-11.321
▁Suite	-11.3211
▁payload	-11.3213
▁babies	-11.3215
word	-11.3215
▁Castle	-11.3217
grade	-11.3218
Duration	-11.3218
df	-11.3221
▁socket	-11.3221
▁Audio	-11.3226
▁Environmental	-11.3226
▁Animal	-11.3226
info	-11.3226
▁weak	-11.3226
mg	-11.3228
▁releases	-11.3229
▁extraordinary	-11.3229
▁rescue	-11.323
ates	-11.3231
▁Kansas	-11.3232
just	-11.3235
▁metrics	-11.3236
tail	-11.3239
▁stem	-11.3241
kan	-11.3242
▁Gift	-11.3244
▁secured	-11.3244
7%	-11.3245
ATE	-11.3246
IV	-11.3246
▁marketplace	-11.325
Statistics	-11.325
▁navigation	-11.325
▁shaped	-11.3253
▁dramatic	-11.3254
▁automotive	-11.3254
▁Graph	-11.3254
▁getMax	-11.3255
▁Category	-11.3256
via	-11.3256
when	-11.3256
▁intellectual	-11.3258
▁Pop	-11.3261
▁Perhaps	-11.3261
▁ByteString	-11.3262
NC	-11.3264
▁Jean	-11.3269
▁PRO	-11.327
▁Pra	-11.327
▁Face	-11.327
Rows	-11.3274
UT	-11.3274
▁800-	-11.3276
▁travelling	-11.3278
▁coin	-11.3278
Should	-11.328
▁Han	-11.3282
▁Simon	-11.3284
▁conservation	-11.3285
▁agenda	-11.3289
▁poly	-11.329
▁caring	-11.329
json	-11.3292
▁foster	-11.3292
▁Stay	-11.3294
▁falls	-11.3294
▁ka	-11.3295
oid	-11.3298
▁surely	-11.3299
▁der	-11.3299
last	-11.3299
▁warehouse	-11.33
▁Tile	-11.3301
▁Six	-11.3302
lee	-11.3303
▁preview	-11.3303
▁decorative	-11.3304
▁selecting	-11.3309
▁metric	-11.3309
▁crushing	-11.331
▁$6	-11.331
▁terrace	-11.331
cS	-11.3311
▁trucks	-11.3313
▁cosmetic	-11.3314
▁wines	-11.3314
▁bacteria	-11.3315
▁bra	-11.3318
cover	-11.332
▁Ob	-11.332
▁mild	-11.3321
▁consequences	-11.3323
ines	-11.3325
OM	-11.3326
▁Authority	-11.3326
Connector	-11.3327
▁deadline	-11.333
▁Lady	-11.333
▁isValid	-11.3332
▁bitField	-11.3333
▁arise	-11.3335
▁receipt	-11.3335
700	-11.3336
ess	-11.3337
▁Attorney	-11.3339
▁Wales	-11.3339
▁2019,	-11.334
▁39	-11.3341
What	-11.3341
Runner	-11.3341
logy	-11.3342
Execute	-11.3343
▁Ring	-11.3343
▁attempts	-11.3343
▁Pages	-11.3345
owned	-11.3346
DAO	-11.3346
Binary	-11.3347
▁Bon	-11.3349
▁dressing	-11.3353
So	-11.3353
▁fitting	-11.3354
▁tune	-11.3354
▁CC	-11.3354
▁newValue	-11.3355
▁horses	-11.3358
gov	-11.336
▁tenant	-11.3361
nate	-11.3362
▁adoption	-11.3362
▁Notification	-11.3364
▁heal	-11.3364
▁grain	-11.3366
▁Fu	-11.3369
system	-11.3369
▁keySet	-11.337
▁fulfill	-11.3371
▁tick	-11.3371
▁relating	-11.3371
VE	-11.3373
▁reflection	-11.3374
▁Analysis	-11.3375
▁describes	-11.3376
ple	-11.3376
UM	-11.3377
▁witness	-11.338
▁outdoors	-11.3381
▁preferences	-11.3384
Closed	-11.3387
▁Paint	-11.3394
▁opinions	-11.34
▁antique	-11.3403
GE	-11.3405
▁occasions	-11.3405
▁HS	-11.3406
▁Aug	-11.3407
▁tower	-11.3407
▁Cost	-11.3408
▁routes	-11.3409
▁keen	-11.3409
SELECT	-11.3412
Year	-11.3412
ters	-11.3412
▁possess	-11.3418
arian	-11.3424
▁establishment	-11.3424
Attempt	-11.3428
▁wishes	-11.3432
▁Sen	-11.3433
World	-11.3433
▁propertyName	-11.3434
▁anytime	-11.3438
▁reviewed	-11.3439
▁Bird	-11.3441
▁passes	-11.3442
Volume	-11.3444
▁peaceful	-11.3444
▁FA	-11.3444
▁remind	-11.3445
▁champion	-11.3447
etic	-11.3447
▁delicate	-11.345
▁72	-11.3451
▁exec	-11.3454
▁bull	-11.3454
▁III	-11.3455
▁toArray	-11.3455
Tags	-11.3455
Grid	-11.3455
ically	-11.3458
▁tan	-11.3462
▁Elizabeth	-11.3463
Parse	-11.3464
▁Lab	-11.3465
▁Cr	-11.3466
Trigger	-11.3466
▁Nature	-11.3467
▁oldest	-11.3471
CT	-11.3473
▁ladies	-11.3475
▁isSet	-11.3477
▁Maryland	-11.3477
lf	-11.3477
▁filing	-11.3478
▁Cro	-11.3478
being	-11.3478
▁diameter	-11.3478
▁placing	-11.3478
ille	-11.348
▁Lincoln	-11.348
▁converted	-11.3481
▁grace	-11.3482
itz	-11.3483
Health	-11.3484
▁variables	-11.3484
cas	-11.3485
▁gotten	-11.3488
▁Miller	-11.3489
▁heavily	-11.3489
▁bearing	-11.3493
▁Bit	-11.3494
▁Bel	-11.3495
▁glasses	-11.3498
▁targets	-11.3506
▁measurement	-11.3507
RM	-11.3507
▁technological	-11.3507
▁damages	-11.3509
▁generations	-11.3511
▁celebrating	-11.3511
▁Execution	-11.3513
▁Davis	-11.3514
▁46	-11.3515
▁Sarah	-11.3515
flu	-11.3517
▁Henry	-11.3518
gie	-11.3518
bel	-11.3521
▁consist	-11.3522
web	-11.3525
▁skirt	-11.3526
show	-11.3526
Created	-11.3526
▁closure	-11.3528
▁Lin	-11.3531
OT	-11.3533
▁Feel	-11.3537
▁Indiana	-11.3538
▁odd	-11.3539
▁EMPTY	-11.3539
▁$7	-11.3542
▁Despite	-11.3543
▁Movie	-11.3546
▁habits	-11.3548
▁Chat	-11.3548
▁Outdoor	-11.3551
SH	-11.3555
oke	-11.3556
▁sail	-11.3556
pass	-11.3558
▁hero	-11.3559
▁Memory	-11.356
▁pp	-11.3561
DP	-11.3562
gra	-11.3563
▁presentations	-11.3564
▁existence	-11.3566
max	-11.3567
▁cor	-11.3567
▁sm	-11.3571
ori	-11.3571
▁serial	-11.3572
▁timing	-11.3573
▁Sur	-11.3573
ava	-11.3574
iva	-11.3574
lands	-11.3577
Height	-11.3577
▁subtle	-11.3577
END	-11.3578
▁Bring	-11.3578
▁Know	-11.3581
▁Fine	-11.3582
Le	-11.3583
Ra	-11.3584
▁advised	-11.3588
born	-11.359
▁remarkable	-11.3591
▁vector	-11.3591
Algorithm	-11.3592
▁breed	-11.3594
▁roofing	-11.3594
▁comply	-11.3594
▁virtually	-11.3596
▁participated	-11.3598
▁executor	-11.3598
▁enabling	-11.3598
▁Label	-11.3598
▁divided	-11.3602
▁Transport	-11.3602
rat	-11.3603
▁getContext	-11.3604
MM	-11.3604
▁Flash	-11.3604
▁wherever	-11.3605
ote	-11.3605
▁realistic	-11.3605
▁duties	-11.3606
Management	-11.3608
Pane	-11.3609
▁dancing	-11.3609
▁Arm	-11.3609
▁championship	-11.3609
▁Was	-11.361
▁EX	-11.361
▁indexOf	-11.3611
lle	-11.3613
▁Philadelphia	-11.3614
▁Factory	-11.3614
rr	-11.3614
▁genetic	-11.3614
osis	-11.3614
▁predicate	-11.3616
▁friendship	-11.3619
▁cons	-11.3621
server	-11.3622
road	-11.3623
▁gate	-11.3624
LD	-11.3624
▁productive	-11.3625
▁Snow	-11.3625
▁Toyota	-11.3627
band	-11.3629
Ro	-11.363
▁Bundle	-11.3631
▁"<	-11.3632
▁Ger	-11.3633
▁Comp	-11.3633
▁buttons	-11.3634
▁meter	-11.3635
coming	-11.3635
▁getStatus	-11.3636
▁seasonal	-11.3638
pot	-11.3639
index	-11.3639
exp	-11.3639
▁Dutch	-11.3639
▁possession	-11.364
▁descriptor	-11.3641
Codec	-11.3644
▁6-	-11.3646
▁Friends	-11.3646
▁hunt	-11.3647
ators	-11.3648
▁popularity	-11.3649
▁visa	-11.3651
Flag	-11.3653
▁Brazil	-11.3654
mes	-11.3657
Lookup	-11.3661
tract	-11.3661
Millis	-11.3663
▁ip	-11.3663
▁anchor	-11.3664
▁Mission	-11.3665
ili	-11.3666
▁knife	-11.3667
Scan	-11.3669
▁Located	-11.367
nLe	-11.367
version	-11.367
▁temple	-11.367
zone	-11.3672
cp	-11.3674
▁queries	-11.3675
Free	-11.3675
▁Sh	-11.3678
▁Linux	-11.3681
▁theater	-11.3682
nRo	-11.3682
PORT	-11.3685
▁Technical	-11.3685
ERS	-11.3689
▁stamp	-11.369
▁disable	-11.369
▁periods	-11.3691
▁musicians	-11.3692
▁debug	-11.3694
▁hydro	-11.3695
▁losses	-11.3697
▁specially	-11.3699
tens	-11.37
▁gently	-11.3701
nU	-11.3704
▁flavors	-11.3705
▁Tar	-11.3706
▁specialty	-11.3707
▁achieving	-11.3715
Interceptor	-11.3716
ndi	-11.3717
Book	-11.3718
▁coaches	-11.3723
ito	-11.3726
▁Byte	-11.3727
▁accidents	-11.3728
▁mineral	-11.373
▁overseas	-11.373
hol	-11.3733
▁analytics	-11.3734
Cost	-11.3737
mission	-11.3737
▁cuisine	-11.3738
▁EC	-11.3738
iest	-11.3741
▁apparently	-11.3746
▁bl	-11.3749
Top	-11.375
▁hunting	-11.3751
Print	-11.3752
▁hybrid	-11.3752
▁architectural	-11.3752
▁setText	-11.3754
▁sleeping	-11.3755
COM	-11.3758
PP	-11.3758
effective	-11.376
Archive	-11.3763
▁rdf	-11.3764
▁Sy	-11.3765
erry	-11.3767
responsibilities	-11.3767
lab	-11.3768
▁Condition	-11.3771
▁20%	-11.3772
▁bow	-11.3774
▁trails	-11.3774
Trace	-11.3774
▁oak	-11.3777
▁Rod	-11.378
Modifier	-11.378
Bucket	-11.3781
▁Lewis	-11.3785
▁paste	-11.3787
▁2017.\	-11.3789
▁quilt	-11.3793
▁landing	-11.3794
▁consent	-11.3794
▁Rome	-11.3795
▁waves	-11.3796
▁assign	-11.3797
▁breaks	-11.3797
▁2013,	-11.3798
▁internationally	-11.3798
using	-11.38
▁shades	-11.38
▁Girl	-11.3803
ook	-11.3805
▁Th	-11.3805
▁NJ	-11.3805
Old	-11.3814
Kind	-11.3814
rid	-11.3814
▁Qu	-11.3814
dd	-11.3815
sTo	-11.3817
▁getColumn	-11.3818
pad	-11.382
96\	-11.3821
mber	-11.3824
maker	-11.3824
▁shortly	-11.3827
▁resist	-11.3827
▁consultant	-11.3828
▁Villa	-11.3829
▁publishing	-11.3832
▁47	-11.3832
▁comedy	-11.384
▁Berlin	-11.384
▁Homes	-11.384
▁indicated	-11.3844
▁Bro	-11.3845
▁Total	-11.3845
rin	-11.3848
▁physician	-11.385
nBecause	-11.3853
▁moderate	-11.3853
pon	-11.3857
▁lid	-11.3857
Assignment	-11.3858
▁tmp	-11.3858
▁boss	-11.3859
▁accordance	-11.3861
▁invoice	-11.3862
▁stayed	-11.3864
▁neither	-11.3864
▁homeowners	-11.3865
Core	-11.3866
▁taxi	-11.3867
▁grounds	-11.387
▁dresses	-11.3871
eur	-11.3871
▁universal	-11.3872
▁motorcycle	-11.3872
▁vendor	-11.3873
▁fiction	-11.3873
▁USD	-11.3873
▁scholarship	-11.3873
▁gel	-11.3874
▁su	-11.3875
▁scent	-11.3876
▁dive	-11.3877
▁Mono	-11.3878
Insert	-11.388
▁attorneys	-11.3881
atic	-11.3883
▁intent	-11.3884
▁diamond	-11.3884
▁Harry	-11.3886
2-	-11.3889
▁persist	-11.389
ByName	-11.389
Com	-11.3892
oni	-11.3892
wall	-11.3896
▁SW	-11.3896
▁exhibit	-11.3897
▁Coach	-11.3897
▁passenger	-11.3897
LO	-11.3897
▁wallet	-11.3901
▁exploration	-11.3902
TR	-11.3903
▁Cancer	-11.3903
▁Sql	-11.3912
bol	-11.3913
▁Pin	-11.3915
▁slice	-11.3916
tl	-11.3916
▁confirmation	-11.3917
▁everybody	-11.3917
▁decorating	-11.3918
▁promotional	-11.3918
▁underlying	-11.3921
TP	-11.3923
▁answered	-11.3925
▁4,	-11.3926
zz	-11.3931
▁substitute	-11.3932
▁rings	-11.3933
Ex	-11.3933
▁invitation	-11.3934
▁getField	-11.3936
rian	-11.3937
▁Tower	-11.3939
kins	-11.3939
▁Dubai	-11.394
▁addiction	-11.394
Accessor	-11.3941
▁getElement	-11.3942
▁WI	-11.3942
▁arrangement	-11.3943
▁Excel	-11.3944
▁Used	-11.3944
▁weapons	-11.3947
▁Too	-11.395
▁dial	-11.395
main	-11.3951
▁Supreme	-11.3954
real	-11.3956
ident	-11.3958
▁encouraging	-11.3958
wise	-11.3959
▁$100	-11.3961
▁Payment	-11.3962
87\	-11.3964
▁validation	-11.3965
▁Sony	-11.3968
▁substance	-11.3969
nu	-11.3969
Equal	-11.3971
Packet	-11.3971
▁Corp	-11.3972
▁Wil	-11.3974
mus	-11.3974
▁destinations	-11.3976
try	-11.3976
▁1:	-11.3976
Artifact	-11.3977
▁Highway	-11.3978
sFor	-11.398
speed	-11.3983
▁Lane	-11.3984
▁handled	-11.3988
will	-11.3991
▁varied	-11.3993
Cloud	-11.4004
▁wisdom	-11.4004
▁associate	-11.4004
▁hearts	-11.4006
lier	-11.4006
▁visibility	-11.4008
tree	-11.4009
▁snack	-11.4011
▁walks	-11.4013
▁10-	-11.4015
▁producers	-11.4015
Cursor	-11.4015
▁difficulty	-11.4018
walk	-11.4018
▁bin	-11.402
▁Criteria	-11.4021
▁1970	-11.4025
▁"]"	-11.403
▁Sciences	-11.403
▁estimates	-11.4031
▁Ridge	-11.4031
wards	-11.4031
▁entities	-11.4034
▁hill	-11.4035
▁reward	-11.4036
▁disaster	-11.4039
▁hassle	-11.4039
Mi	-11.404
stock	-11.4041
▁resolved	-11.4041
Area	-11.4044
▁Bitcoin	-11.4046
▁plates	-11.405
▁arrest	-11.405
▁Den	-11.4051
▁rarely	-11.4052
ARD	-11.4054
vel	-11.4054
▁costly	-11.4055
▁Return	-11.4055
null	-11.4056
outs	-11.4056
▁Atlantic	-11.4057
▁Maria	-11.4058
rn	-11.406
▁recipient	-11.4061
▁getModel	-11.4061
▁automated	-11.4061
uma	-11.4062
oil	-11.4065
▁satisfy	-11.4069
▁BO	-11.4069
java	-11.4071
▁departments	-11.4071
▁unlimited	-11.4072
▁retreat	-11.4073
▁Mom	-11.4074
▁blogs	-11.4075
▁branches	-11.4076
▁Burn	-11.4077
Man	-11.4077
▁mechanism	-11.4077
▁activate	-11.4077
plan	-11.4078
▁carrier	-11.4079
Supplier	-11.408
party	-11.408
CU	-11.408
▁Tro	-11.4082
▁dig	-11.4084
▁spectrum	-11.4088
itter	-11.4091
▁tent	-11.4092
dog	-11.4093
soft	-11.4094
▁stakeholders	-11.4096
▁Diamond	-11.4097
Remote	-11.4097
▁Ali	-11.4098
▁potatoes	-11.4098
▁nationwide	-11.41
▁burning	-11.4102
▁2015.	-11.4105
depth	-11.4107
▁latter	-11.4109
pool	-11.411
ode	-11.4114
nDoes	-11.4115
pc	-11.4122
▁injection	-11.4122
▁Eco	-11.4122
▁maximize	-11.4122
▁spouse	-11.4122
Dimension	-11.4122
▁Dental	-11.4126
▁adopt	-11.4127
▁delight	-11.4128
hin	-11.4131
▁sponsored	-11.4131
night	-11.4136
▁mixing	-11.4137
▁voltage	-11.4138
▁tr	-11.4141
▁cursor	-11.4142
▁realm	-11.4142
TimeMillis	-11.4143
▁Close	-11.4146
▁paths	-11.4146
NOT	-11.4148
▁defeat	-11.4149
nContact	-11.415
▁colored	-11.415
▁reform	-11.4151
▁Ze	-11.4152
til	-11.4154
gr	-11.4154
lk	-11.4154
edge	-11.4157
▁1980	-11.4158
▁ko	-11.4159
PR	-11.4161
▁declared	-11.4163
olo	-11.4163
▁ordering	-11.4164
▁settle	-11.4164
▁Poly	-11.4165
▁Early	-11.4166
AF	-11.4167
▁Chrome	-11.4169
▁Je	-11.4169
▁desc	-11.417
▁dialog	-11.4171
▁involvement	-11.4174
▁composed	-11.4176
▁Send	-11.4178
▁des	-11.4178
tter	-11.4179
▁Speed	-11.4179
ics	-11.418
nFinally	-11.4181
▁Parameter	-11.4181
ello	-11.4182
▁Input	-11.4183
tress	-11.4183
SL	-11.4185
▁wellness	-11.4187
▁Massachusetts	-11.4188
▁imagination	-11.4188
▁convey	-11.4193
sub	-11.4194
▁wholesale	-11.4197
Zero	-11.42
▁DNA	-11.42
▁Reg	-11.42
▁attendance	-11.4202
ws	-11.4204
}	-11.4206
▁Mind	-11.4211
▁COLUMN	-11.4219
Card	-11.422
▁palm	-11.4222
▁Coloring	-11.4223
gle	-11.4227
▁fridge	-11.4228
illo	-11.4232
▁appliance	-11.4234
▁junior	-11.4234
Locator	-11.4235
▁Shipping	-11.4236
▁belief	-11.4238
▁Heritage	-11.4238
▁KEY	-11.4241
▁suits	-11.4243
▁fewer	-11.4243
▁worried	-11.4246
▁Turkey	-11.4247
nCall	-11.4247
▁venues	-11.4248
▁charging	-11.4249
Same	-11.4251
▁Bachelor	-11.4252
▁Transfer	-11.4252
heat	-11.4253
▁getFirst	-11.4254
▁idx	-11.4254
mic	-11.4262
▁!\	-11.4262
ql	-11.4263
▁Urban	-11.4265
Arg	-11.4266
Selected	-11.4268
▁decoration	-11.4268
▁stain	-11.4271
▁Hay	-11.4273
▁moral	-11.4273
DN	-11.4274
▁Composite	-11.4275
▁Instant	-11.4275
▁funded	-11.4278
iti	-11.4278
▁Extension	-11.4279
▁flip	-11.4279
lash	-11.4279
▁gene	-11.4282
Wait	-11.4283
▁ra	-11.4284
ency	-11.4284
fs	-11.4284
▁Vancouver	-11.4285
▁Records	-11.4285
▁Write	-11.4285
▁Race	-11.4286
▁drag	-11.4287
3"	-11.4287
▁Things	-11.4293
▁Iowa	-11.4293
▁balls	-11.4296
▁Valentine	-11.4297
▁purple	-11.4297
▁Sri	-11.4298
Subscription	-11.4301
Over	-11.4301
▁regulation	-11.4302
mond	-11.4302
▁machinery	-11.4304
▁Jon	-11.4305
Family	-11.4306
SET	-11.4308
▁Employee	-11.4309
▁kits	-11.4309
▁punch	-11.4309
▁proved	-11.431
▁eco	-11.4311
▁nonprofit	-11.4315
▁ga	-11.4315
▁Med	-11.4316
▁restrictions	-11.4317
uf	-11.4319
hen	-11.432
proof	-11.4323
▁crafted	-11.4327
79	-11.4331
Login	-11.4332
live	-11.4334
Off	-11.4335
iya	-11.4335
▁retired	-11.4339
▁th	-11.4339
▁BR	-11.434
▁expense	-11.4342
▁contributed	-11.4342
▁jj	-11.4342
▁Editor	-11.4342
▁Images	-11.4343
▁publications	-11.4344
▁conversations	-11.4344
▁responsive	-11.4344
IE	-11.4347
▁TYPE	-11.435
▁Es	-11.435
▁understood	-11.4352
▁Honda	-11.4352
▁Tennessee	-11.4356
▁pregnant	-11.4356
Price	-11.4358
error	-11.4359
Exp	-11.4359
▁annually	-11.436
VI	-11.4363
eth	-11.4365
▁dataset	-11.4367
▁alias	-11.4367
▁dedication	-11.4368
▁Metro	-11.4374
lake	-11.4378
▁movements	-11.4378
▁blank	-11.4379
▁Wilson	-11.438
nBo	-11.4384
atory	-11.4385
Setting	-11.4386
▁emptyList	-11.4388
▁BBC	-11.4389
▁vitamin	-11.4393
▁implementing	-11.4393
▁essentially	-11.4395
▁booth	-11.4395
nJoin	-11.4397
▁eq	-11.4398
▁Ultra	-11.4399
▁fur	-11.4401
▁highway	-11.4401
▁Kelly	-11.4403
▁vulnerable	-11.4407
▁excitement	-11.4407
▁poster	-11.4408
▁Books	-11.4408
ILL	-11.4409
Completion	-11.4415
▁narrative	-11.4419
▁detection	-11.4421
▁Navy	-11.4421
▁triple	-11.4422
▁uuid	-11.4423
▁UP	-11.4424
nGood	-11.4425
nPa	-11.4428
▁resulted	-11.4429
▁finishes	-11.4433
poli	-11.4434
▁04	-11.4435
▁getLast	-11.4435
▁sits	-11.4438
Scale	-11.4438
▁proportion	-11.4439
▁facial	-11.4439
▁intimate	-11.4439
who	-11.4442
uv	-11.4444
season	-11.4445
▁minimize	-11.4447
udge	-11.445
▁chic	-11.445
▁durability	-11.4451
▁tremendous	-11.4451
▁Patrick	-11.4451
▁HERE	-11.4452
▁lovers	-11.4455
▁developments	-11.4457
▁2:	-11.4458
▁filename	-11.4458
There	-11.4459
▁pour	-11.446
tur	-11.4461
▁2012,	-11.4461
▁Profile	-11.4463
▁tasty	-11.4463
▁AP	-11.4463
▁trap	-11.4463
dding	-11.4464
▁9.	-11.4467
-15	-11.4467
▁Charlotte	-11.4469
Send	-11.4469
▁54	-11.447
fr	-11.4474
▁entrySet	-11.4474
rill	-11.4476
▁granite	-11.4479
▁uploaded	-11.448
▁universe	-11.4483
▁LOVE	-11.4486
▁earnings	-11.4487
▁courts	-11.4488
dl	-11.4491
▁Uni	-11.4492
arm	-11.4493
struct	-11.4493
▁identification	-11.4494
▁1997	-11.4495
▁Dress	-11.4499
▁weird	-11.45
GS	-11.4502
▁pockets	-11.4503
create	-11.4503
▁authentication	-11.4505
▁Recognition	-11.4506
▁HO	-11.4507
94\	-11.4508
▁Investment	-11.4509
▁Predicate	-11.451
▁construct	-11.451
serv	-11.4511
▁tu	-11.4511
ao	-11.4514
▁connector	-11.4515
▁tele	-11.4516
Encoding	-11.4517
▁jazz	-11.4517
▁NE	-11.4517
used	-11.4518
ages	-11.4518
meter	-11.4518
Split	-11.452
▁struck	-11.4523
▁utilizing	-11.4527
nTwo	-11.4529
nCar	-11.4529
Bit	-11.453
▁scoring	-11.453
member	-11.4533
▁NFL	-11.4533
▁refrigerator	-11.4534
▁enjoys	-11.4537
▁Fo	-11.4537
▁Heat	-11.4538
▁getRequest	-11.4539
▁distinctive	-11.454
▁curious	-11.4541
▁swap	-11.4542
tric	-11.4544
ith	-11.4545
▁WITH	-11.4546
▁indicates	-11.4547
nPrevious	-11.4547
▁startup	-11.4548
▁Soft	-11.4548
▁heated	-11.455
Schedule	-11.455
▁CS	-11.4555
▁admitted	-11.4556
Left	-11.4556
wick	-11.4558
SIZE	-11.456
▁cheer	-11.456
▁mature	-11.456
ander	-11.4565
▁containers	-11.4566
oop	-11.4566
▁measured	-11.4567
direct	-11.4567
▁suddenly	-11.4567
tting	-11.4568
Tech	-11.4569
▁ordinary	-11.4569
▁Never	-11.457
▁wardrobe	-11.4571
▁Iran	-11.4571
▁algorithm	-11.4572
sion	-11.4573
berry	-11.458
Services	-11.4581
▁Reading	-11.4581
DateTime	-11.4583
▁soccer	-11.4583
self	-11.4584
▁Import	-11.4588
▁neuro	-11.4588
Random	-11.4588
▁killing	-11.4588
▁getContent	-11.4588
adi	-11.4589
▁emissions	-11.4592
▁Mode	-11.4594
RY	-11.4594
▁gen	-11.4594
▁immune	-11.4595
▁prestigious	-11.4595
ils	-11.4596
▁6,	-11.4597
▁Pinterest	-11.46
▁slight	-11.4602
▁achievement	-11.4603
▁adorable	-11.4603
▁Mockito	-11.4603
uro	-11.4605
▁continuously	-11.4605
▁vent	-11.4606
▁Football	-11.4607
▁laboratory	-11.4607
▁Solar	-11.4607
▁Ice	-11.4611
**	-11.4611
▁recycling	-11.4611
hard	-11.4612
▁stove	-11.4613
des	-11.4613
▁Allen	-11.4614
▁evil	-11.4618
▁legend	-11.462
▁runtime	-11.462
▁suited	-11.4621
aff	-11.4622
Sa	-11.4624
▁Innovation	-11.4626
▁Tor	-11.4627
▁treasure	-11.4628
▁airline	-11.4629
▁queen	-11.463
ova	-11.4632
ree	-11.4632
▁49	-11.4635
▁dialogue	-11.4639
▁manufacture	-11.464
▁Portland	-11.4642
lea	-11.4649
▁Grade	-11.4649
▁1,000	-11.4653
▁Stage	-11.4654
▁Domain	-11.4655
▁CV	-11.4658
VA	-11.4659
fl	-11.4659
▁logger	-11.4662
metric	-11.4665
▁complaint	-11.4666
▁Sheet	-11.4667
Secret	-11.4669
▁makers	-11.4672
Transfer	-11.4674
▁flavour	-11.4674
10.	-11.4675
▁dear	-11.4676
▁Carl	-11.4678
▁Members	-11.468
▁Variable	-11.468
▁poetry	-11.468
▁CF	-11.4681
▁YOUR	-11.4684
ompletableFuture	-11.4688
▁Sol	-11.4688
▁burden	-11.4688
▁1996	-11.4691
ibility	-11.4692
▁fixtures	-11.4692
▁embedded	-11.4694
graph	-11.4696
▁backed	-11.4696
▁embrace	-11.4697
▁belong	-11.47
▁ribbon	-11.47
hot	-11.4702
SF	-11.4703
▁Provider	-11.4705
▁frozen	-11.4708
▁accompanied	-11.4711
▁Affairs	-11.4712
stick	-11.4714
▁effectiveness	-11.4714
▁UV	-11.4714
gin	-11.4715
▁Enter	-11.4716
▁Sim	-11.4716
AST	-11.472
▁Frame	-11.4722
▁hitting	-11.4726
Rest	-11.4728
▁welcoming	-11.4729
▁24/7	-11.4733
▁adequate	-11.4734
lib	-11.4734
edu	-11.4735
/"	-11.4736
▁dependent	-11.4736
▁cater	-11.4737
▁nearest	-11.4737
dle	-11.4738
▁Bat	-11.4739
▁transparent	-11.4745
▁stopping	-11.4745
▁GO	-11.4746
▁supporters	-11.4748
600	-11.475
▁Clark	-11.4751
▁router	-11.4753
▁190	-11.4754
_2	-11.4754
▁motivation	-11.4755
▁offerings	-11.4756
green	-11.4756
Find	-11.4756
▁attachment	-11.4758
cycl	-11.4758
▁Gal	-11.4758
▁Character	-11.476
aya	-11.4762
▁Nigeria	-11.4762
aki	-11.4763
▁threats	-11.4766
▁hiking	-11.4766
rea	-11.4767
def	-11.4767
▁bathrooms	-11.4769
▁Break	-11.477
▁calories	-11.4774
▁hop	-11.4774
▁Bath	-11.4776
Focus	-11.4776
▁Ron	-11.4777
▁entrepreneurs	-11.4778
▁screw	-11.4779
▁Deep	-11.478
▁Survey	-11.478
dar	-11.4784
sburg	-11.4786
FI	-11.479
▁stake	-11.479
hood	-11.479
▁Jet	-11.4795
▁screens	-11.4796
▁peek	-11.4797
▁Pad	-11.4798
▁mystery	-11.4803
▁Following	-11.4803
▁Designs	-11.4806
title	-11.4806
▁fancy	-11.4806
▁wax	-11.4806
▁badge	-11.4808
▁que	-11.4809
▁smoking	-11.481
nKeep	-11.4818
▁stood	-11.4819
▁complimentary	-11.482
▁rat	-11.482
▁Olympic	-11.4825
say	-11.4826
▁replacing	-11.4827
▁crop	-11.4828
chan	-11.4829
▁elsewhere	-11.483
▁JSON	-11.4831
▁pole	-11.4831
▁ImmutableList	-11.4833
▁MediaType	-11.4834
▁boasts	-11.4838
osa	-11.4838
▁Native	-11.484
nLike	-11.484
▁runner	-11.4842
▁Better	-11.4843
Objects	-11.4843
▁tied	-11.4843
▁RA	-11.4844
▁documentary	-11.4844
▁charter	-11.4844
color	-11.4845
Capacity	-11.4846
tone	-11.4847
shirt	-11.4849
:"	-11.4851
▁engineer	-11.4852
▁guided	-11.4852
WA	-11.4853
Head	-11.4854
▁optimize	-11.4856
▁7,	-11.4856
▁Furthermore	-11.4856
▁listeners	-11.486
▁tunnel	-11.486
Constant	-11.4862
kg	-11.4863
▁donate	-11.4867
▁jo	-11.4868
Pa	-11.4871
ential	-11.4875
▁Moreover	-11.4876
▁medications	-11.4877
▁Sir	-11.4879
▁Bush	-11.488
▁cyber	-11.4881
▁combo	-11.4883
▁mesh	-11.4885
Program	-11.4885
▁Oxford	-11.4885
nit	-11.4885
▁accent	-11.4886
▁lit	-11.4887
▁PO	-11.4893
▁Junior	-11.4893
▁partial	-11.4894
has	-11.4895
lton	-11.4895
▁Korean	-11.4895
▁regards	-11.4896
eller	-11.4896
▁Rick	-11.4897
▁authorized	-11.4898
▁Anna	-11.4899
▁couples	-11.4902
count	-11.4902
▁loads	-11.4902
▁profits	-11.4908
▁collective	-11.4908
▁printStackTrace	-11.491
▁Active	-11.4912
▁Currently	-11.4912
eek	-11.4914
▁eager	-11.4914
▁Ol	-11.4917
▁recruitment	-11.4919
▁occasionally	-11.492
▁overwhelming	-11.4921
▁fingers	-11.4923
pel	-11.4924
▁crisp	-11.4924
Records	-11.4924
▁pile	-11.4925
▁collecting	-11.4926
▁peel	-11.4926
TM	-11.4927
▁Tuple	-11.4931
▁leisure	-11.4931
Car	-11.4931
▁tourists	-11.4931
▁Discover	-11.4932
▁PhD	-11.4933
▁Mont	-11.4935
▁pic	-11.4937
▁Register	-11.4938
▁observe	-11.494
erate	-11.4941
▁habit	-11.4941
▁brass	-11.4944
Runtime	-11.4944
dam	-11.4947
Arguments	-11.4947
Stage	-11.4949
▁Switch	-11.4952
▁nervous	-11.4952
▁collar	-11.4952
▁hired	-11.4953
▁Secret	-11.4953
▁sha	-11.4959
▁desert	-11.496
▁Staff	-11.4965
ben	-11.4966
Prop	-11.4966
cf	-11.4966
MD	-11.4966
▁pointed	-11.4967
▁Display	-11.4968
Month	-11.4968
▁camping	-11.4969
CON	-11.497
▁Des	-11.4971
cthe	-11.4973
▁bloom	-11.4973
▁prototype	-11.4973
cid	-11.4976
▁CE	-11.4978
Structure	-11.4979
Drop	-11.4979
ured	-11.498
▁dr	-11.4982
nz	-11.4982
▁unlike	-11.4985
▁fr	-11.4985
▁separately	-11.4986
▁Track	-11.4987
▁Ros	-11.4988
▁virus	-11.499
▁Deck	-11.499
Super	-11.4991
▁onion	-11.4992
bell	-11.4995
▁Garage	-11.4996
Transform	-11.4997
▁directors	-11.4997
lation	-11.4998
▁mp	-11.4999
▁McC	-11.5001
▁blame	-11.5002
nDid	-11.5002
ICE	-11.5002
▁departure	-11.5002
Basic	-11.5003
▁carries	-11.5004
▁designated	-11.5006
▁Netherlands	-11.5006
▁favorites	-11.5008
▁coins	-11.5008
NG	-11.5009
nThen	-11.5012
▁tires	-11.5015
▁Thailand	-11.5015
▁repo	-11.5018
erie	-11.5019
cell	-11.502
nHis	-11.502
▁sustainability	-11.5023
▁principle	-11.5024
▁Alliance	-11.5024
▁instructor	-11.5025
▁"[	-11.5025
▁audiences	-11.5028
Supported	-11.5028
▁compound	-11.5029
▁MC	-11.5029
▁promises	-11.503
Assert	-11.5031
2016	-11.5031
▁agricultural	-11.5031
Direct	-11.5037
Listeners	-11.5038
▁Tony	-11.5038
Credentials	-11.5041
▁Hor	-11.5043
▁CH	-11.5045
ifies	-11.5046
Reason	-11.5047
▁Hello	-11.5051
▁pending	-11.5052
▁Ross	-11.5053
▁stops	-11.5054
▁Dining	-11.5054
▁stocks	-11.5055
▁2014.	-11.5056
▁Republican	-11.5056
▁compile	-11.5057
▁Cho	-11.5059
ivity	-11.5061
▁squad	-11.5061
▁locked	-11.5061
▁Issue	-11.5062
▁discipline	-11.5062
Center	-11.5063
thing	-11.5067
Minute	-11.5067
▁beloved	-11.5067
▁evolution	-11.507
▁Info	-11.5072
▁titled	-11.5072
▁chef	-11.5073
▁actors	-11.5073
▁85	-11.5074
▁Ms	-11.5078
▁microwave	-11.5078
▁deleted	-11.5081
▁tropical	-11.5086
▁Economic	-11.5087
▁Mod	-11.5088
▁Cambridge	-11.5091
▁donated	-11.5091
▁prizes	-11.5092
Geo	-11.5093
▁Five	-11.5095
nUsing	-11.5096
▁leverage	-11.5096
▁demonstrated	-11.5097
aba	-11.5097
Relationship	-11.5098
▁51	-11.5099
agon	-11.5101
▁treats	-11.5102
HR	-11.5102
▁refreshing	-11.5103
▁neighbors	-11.5103
▁pushing	-11.5104
▁Fish	-11.5104
plain	-11.5105
ridge	-11.5105
Specification	-11.5106
▁getConnection	-11.5106
UL	-11.5106
bro	-11.511
▁bride	-11.5116
bag	-11.5116
$1	-11.5117
Effect	-11.5118
▁comic	-11.512
love	-11.512
▁Nice	-11.5122
▁affects	-11.5123
▁Reserve	-11.5124
▁Reserved	-11.5126
Repo	-11.5126
▁Salt	-11.5127
▁credits	-11.513
HI	-11.5133
▁Much	-11.5135
▁Works	-11.5137
▁measurements	-11.5138
▁Jason	-11.514
▁BigInteger	-11.5142
PATH	-11.5143
▁equalTo	-11.5146
2019	-11.5147
▁cottage	-11.515
▁individually	-11.5152
what	-11.5152
▁Tre	-11.5153
▁Visual	-11.5153
▁getInt	-11.5157
▁binary	-11.516
▁shake	-11.5162
▁scar	-11.5163
▁Matthew	-11.5164
▁danger	-11.5167
scape	-11.5169
▁intelligent	-11.5171
▁knock	-11.5173
▁1995	-11.5173
▁exhaust	-11.5173
▁exceed	-11.5175
▁automation	-11.5176
▁nuts	-11.5176
uz	-11.5176
▁cave	-11.5176
▁couch	-11.5178
Cancel	-11.5179
▁Anne	-11.518
itive	-11.5181
▁Major	-11.5181
AG	-11.5182
▁charming	-11.5182
nCa	-11.5183
▁electronics	-11.5186
▁acknowledge	-11.5187
▁Rep	-11.5187
its	-11.5194
awa	-11.5195
▁GPS	-11.5195
Present	-11.5196
▁accused	-11.5197
ched	-11.5197
Hot	-11.5197
▁Adult	-11.5198
rp	-11.52
▁Philip	-11.5203
▁cmd	-11.5203
900	-11.5204
▁suspension	-11.5206
▁ecosystem	-11.5206
▁nurse	-11.5209
▁cleaned	-11.521
▁Girls	-11.521
▁Events	-11.5211
▁submission	-11.5211
▁Prize	-11.5212
▁formats	-11.5212
▁funeral	-11.5216
UD	-11.5216
▁56	-11.5216
▁Sat	-11.5216
▁Sweet	-11.5216
-16	-11.5217
ees	-11.5217
▁Original	-11.5217
▁Entertainment	-11.5218
▁Inside	-11.5218
▁programmes	-11.522
▁crafts	-11.522
▁publisher	-11.522
nMi	-11.522
pri	-11.5222
▁cups	-11.5222
late	-11.5225
▁CI	-11.5225
sie	-11.5226
▁Bureau	-11.5227
▁okay	-11.5228
▁physically	-11.5229
▁disability	-11.5229
BR	-11.5231
NY	-11.5231
Pack	-11.5235
▁Truck	-11.5235
▁Governor	-11.5236
▁pr	-11.5236
▁assertThrows	-11.5236
▁aggressive	-11.5237
Gen	-11.5239
▁hint	-11.524
▁drops	-11.5241
▁voted	-11.5242
Running	-11.5243
▁tomatoes	-11.5243
▁accomplished	-11.5245
▁costume	-11.5248
▁decorated	-11.5249
▁Battle	-11.525
▁oz	-11.525
nLi	-11.5252
rous	-11.5252
▁getS	-11.5252
▁nicely	-11.5252
▁wool	-11.5254
▁Song	-11.5257
block	-11.5257
BB	-11.5257
EAR	-11.5257
▁Assembly	-11.5258
Convert	-11.5259
▁Phoenix	-11.526
▁varieties	-11.5261
equalsIgnoreCase	-11.5264
Export	-11.5265
▁bits	-11.5268
▁Ak	-11.527
▁actress	-11.5271
after	-11.5271
▁Metric	-11.5272
▁Choice	-11.5272
ras	-11.5274
▁Premium	-11.5274
▁semester	-11.5274
▁survival	-11.5274
▁Clinton	-11.5274
▁snacks	-11.5275
gress	-11.5276
▁revision	-11.5276
▁dirty	-11.5277
▁excessive	-11.5278
Progress	-11.5278
▁meditation	-11.5279
▁qualities	-11.5279
▁Array	-11.528
▁sensors	-11.528
VM	-11.5284
guard	-11.5285
Public	-11.5286
▁horizontal	-11.5288
▁reflects	-11.5289
ique	-11.5292
▁pest	-11.5292
nBoth	-11.5295
▁sorts	-11.5296
That	-11.5297
cate	-11.5297
▁guilty	-11.5299
▁Together	-11.53
▁Random	-11.5307
▁followers	-11.5308
▁Mexican	-11.5309
89\	-11.5309
▁candy	-11.531
gent	-11.531
▁increment	-11.531
ifying	-11.5313
sheet	-11.5313
▁brothers	-11.5315
▁impl	-11.5315
ature	-11.5316
▁lib	-11.5317
Na	-11.5318
▁sweat	-11.5318
▁identifying	-11.5323
▁striking	-11.5326
▁Term	-11.5328
▁difficulties	-11.5329
▁ONE	-11.5331
▁Grey	-11.5332
Timer	-11.5333
▁pasta	-11.5333
Keyword	-11.5333
ITE	-11.5334
▁Runnable	-11.5334
▁Nations	-11.5338
▁getParameter	-11.5339
▁Denver	-11.534
Final	-11.5341
▁veteran	-11.5342
unit	-11.5343
pet	-11.5347
mile	-11.5349
▁Baker	-11.535
ites	-11.535
▁Communications	-11.5354
▁Fla	-11.5356
▁mg	-11.5359
▁intervention	-11.536
lp	-11.536
▁disorders	-11.536
▁Apr	-11.5362
▁shadow	-11.5363
ume	-11.5364
▁viewer	-11.5364
▁Tan	-11.5366
▁pics	-11.5367
▁Yoga	-11.5367
good	-11.5368
Fire	-11.5369
anta	-11.537
▁premises	-11.5371
▁roughly	-11.5371
▁Flat	-11.5374
ering	-11.5374
Cert	-11.5374
Multiple	-11.5374
▁Article	-11.5375
▁lap	-11.5375
▁350	-11.5377
▁countless	-11.5382
▁Making	-11.5382
▁polish	-11.5383
▁mobility	-11.5383
Updated	-11.5383
▁Gun	-11.5384
ground	-11.5385
Relation	-11.5386
▁applicants	-11.5386
ifier	-11.5386
▁tasting	-11.5387
▁adventures	-11.5388
▁react	-11.539
▁god	-11.5392
san	-11.5392
▁Thanksgiving	-11.5392
▁interactions	-11.5395
yne	-11.5395
wind	-11.5396
▁harsh	-11.5396
nk	-11.5397
▁GT	-11.5397
▁interpretation	-11.5399
▁Hub	-11.5399
char	-11.54
▁WE	-11.54
▁Always	-11.54
▁dst	-11.5404
▁getState	-11.5407
sure	-11.5408
▁incorporated	-11.5409
▁territory	-11.5409
Based	-11.541
▁thermal	-11.5411
▁reservation	-11.5413
▁measuring	-11.5418
lb	-11.542
nan	-11.5421
vc	-11.5422
▁getRoot	-11.5423
▁getTarget	-11.5424
▁treating	-11.5426
▁"1"	-11.5428
▁packing	-11.5428
90\	-11.5429
▁Pink	-11.543
lift	-11.543
onia	-11.543
tics	-11.543
▁merely	-11.5431
▁Delete	-11.5432
▁hence	-11.5432
▁somehow	-11.5435
▁thankful	-11.5435
▁motivated	-11.544
HO	-11.5441
▁loading	-11.5441
▁towns	-11.5441
▁abs	-11.5441
Pointer	-11.5442
▁StringBuffer	-11.5444
▁Alaska	-11.5444
▁Summit	-11.5444
!"\	-11.5444
makers	-11.5445
▁elections	-11.5446
▁Hat	-11.545
gre	-11.5451
▁ranking	-11.5453
mers	-11.5453
▁silk	-11.5455
uge	-11.5456
▁grocery	-11.5457
▁reduces	-11.5458
▁churches	-11.5458
▁Install	-11.5461
▁poverty	-11.5462
▁globally	-11.5463
▁pants	-11.5463
▁Owner	-11.5464
standing	-11.5466
▁athletic	-11.5466
▁jail	-11.5467
▁merchandise	-11.5471
▁responded	-11.5472
▁teaches	-11.5474
▁compliment	-11.5474
▁Dragon	-11.5475
▁footage	-11.5476
▁2010,	-11.5476
▁Month	-11.5477
tus	-11.5478
▁Say	-11.5478
HC	-11.5482
▁Decor	-11.5483
pal	-11.5484
7)	-11.5485
Move	-11.5486
▁Yellow	-11.5488
Disk	-11.5488
Static	-11.5492
▁honored	-11.5493
▁expecting	-11.5493
▁graduates	-11.5495
▁Bear	-11.5499
▁alternatives	-11.5499
▁progressive	-11.5501
ats	-11.5501
Deployment	-11.5503
▁Ifc	-11.5503
▁quest	-11.5504
▁Sept	-11.5505
▁boats	-11.5505
▁handles	-11.5506
should	-11.5506
▁returning	-11.5507
rel	-11.5509
cular	-11.551
▁simulation	-11.551
Mar	-11.5513
▁magnificent	-11.5515
▁argue	-11.5515
Weight	-11.5516
pay	-11.5517
▁Named	-11.5517
▁towel	-11.5518
▁tire	-11.5519
▁Drug	-11.552
Slot	-11.552
▁fabrics	-11.552
Issue	-11.5521
▁disorder	-11.5521
▁proposals	-11.5521
6.\	-11.5522
▁Companies	-11.5523
▁Writing	-11.5524
▁$8	-11.5524
▁Vietnam	-11.5528
▁RSS	-11.5529
▁army	-11.553
parent	-11.5531
▁libraries	-11.5532
▁stomach	-11.5532
▁Among	-11.5534
True	-11.5535
ban	-11.5536
Optional	-11.5537
09	-11.5538
Merge	-11.5539
CODE	-11.554
rac	-11.5541
▁relieve	-11.5541
~	-11.5542
▁Qua	-11.5542
Found	-11.5542
specific	-11.5543
pu	-11.5543
HD	-11.5543
▁rush	-11.5546
Username	-11.5548
Cannot	-11.555
▁Bri	-11.5552
▁specializes	-11.5555
ela	-11.5556
▁Anderson	-11.5557
cri	-11.5558
▁Options	-11.5558
▁lip	-11.5559
search	-11.5562
Hint	-11.5563
▁dip	-11.5563
FT	-11.5564
each	-11.5565
aro	-11.5567
▁Along	-11.5567
kind	-11.5568
▁1960	-11.5568
▁Bow	-11.557
worth	-11.557
▁surprises	-11.5571
Ma	-11.5573
▁quit	-11.5573
▁timer	-11.5574
▁preference	-11.5576
SON	-11.5577
▁Glen	-11.5577
▁Vehicle	-11.5578
Trans	-11.5578
▁shelves	-11.5579
▁Legal	-11.5584
▁cone	-11.5584
▁Peace	-11.5585
Used	-11.5587
▁Pal	-11.5592
▁healthier	-11.5594
ontoware	-11.5594
▁Skin	-11.5596
_0	-11.5596
▁lace	-11.5597
▁CL	-11.5598
▁Installation	-11.5598
▁checkout	-11.5602
▁opposed	-11.5603
▁Au	-11.5605
▁vegetable	-11.5606
▁valve	-11.5606
▁kubernetes	-11.5608
▁sacrifice	-11.5608
▁tearDown	-11.5608
nDownload	-11.561
▁hardwood	-11.5612
▁harmful	-11.5614
▁Convention	-11.5615
▁Bor	-11.5616
▁perception	-11.5617
▁Brooklyn	-11.5617
▁align	-11.5621
▁Stadium	-11.5621
Bound	-11.5625
▁educate	-11.5625
▁advocate	-11.5627
▁instances	-11.5628
How	-11.5629
▁Mas	-11.563
DATA	-11.5636
▁valley	-11.5639
▁Alabama	-11.5639
▁77	-11.5641
▁settled	-11.5644
Po	-11.5646
▁nutrients	-11.5647
▁credentials	-11.5648
1-	-11.5649
▁Blu	-11.565
bat	-11.565
▁grants	-11.565
▁Author	-11.5651
ural	-11.5653
▁dock	-11.5653
▁oxygen	-11.5657
▁extensions	-11.5659
▁basket	-11.566
▁dye	-11.566
Mail	-11.566
aught	-11.5661
▁async	-11.5661
▁combining	-11.5662
Preference	-11.5663
▁glue	-11.5663
▁Mall	-11.5668
about	-11.5669
zen	-11.5672
▁classical	-11.5673
▁tailor	-11.5675
▁strap	-11.5676
▁3.5	-11.5676
▁Beauty	-11.5676
una	-11.5677
▁handmade	-11.5678
nY	-11.5679
▁ke	-11.5679
▁Material	-11.5682
▁Corporate	-11.5683
nWhich	-11.5685
Threshold	-11.5688
▁trash	-11.569
▁MB	-11.5696
▁getC	-11.5697
fra	-11.5698
hai	-11.5699
weight	-11.5701
▁subsequent	-11.5704
FILE	-11.5706
▁immigration	-11.5707
▁bargain	-11.5707
▁phrase	-11.5707
▁blessed	-11.5709
▁rhythm	-11.5711
▁Intel	-11.5712
▁Primary	-11.5713
▁feeding	-11.5713
nJa	-11.5713
▁sponsor	-11.5715
▁disappointed	-11.5716
Variables	-11.5717
▁Fre	-11.5717
Other	-11.5718
▁Jar	-11.5718
url	-11.5719
ement	-11.572
▁Wal	-11.5721
▁prep	-11.5727
▁hood	-11.5728
Compare	-11.5728
Author	-11.5731
▁Ki	-11.5732
▁consistency	-11.5732
▁Shower	-11.5733
▁appreciation	-11.5734
▁dried	-11.5735
▁Hack	-11.5735
▁Ex	-11.5738
▁cure	-11.5738
▁Settings	-11.574
▁wing	-11.5743
▁presenting	-11.5743
▁53	-11.5745
yer	-11.5747
▁Lighting	-11.5747
▁Tab	-11.5747
▁intention	-11.5752
▁deserialize	-11.5752
▁Published	-11.5752
▁gauge	-11.5752
▁pushed	-11.5754
▁rocks	-11.5757
Unknown	-11.5758
▁tuned	-11.576
▁Release	-11.576
▁spark	-11.576
nCopyright	-11.5761
▁24-	-11.5762
lines	-11.5762
TION	-11.5762
▁surgical	-11.5762
▁foo	-11.5762
▁Again	-11.5763
?!	-11.5769
▁penalty	-11.577
▁requiring	-11.577
▁closest	-11.577
▁interval	-11.5771
Two	-11.5773
_2011	-11.5773
▁drum	-11.5774
▁contacts	-11.5777
BL	-11.5778
wel	-11.5779
Payment	-11.5779
▁continually	-11.5781
▁Designer	-11.5781
▁forth	-11.5783
▁professionally	-11.5784
▁earning	-11.5786
teen	-11.579
▁homemade	-11.579
▁contacted	-11.5791
track	-11.5792
▁supportive	-11.5792
FL	-11.5793
storm	-11.5795
▁marble	-11.5797
▁climbing	-11.58
▁races	-11.5802
▁symbols	-11.5803
emi	-11.5804
▁aesthetic	-11.5806
▁rub	-11.5806
▁Sweden	-11.5806
▁whereas	-11.5807
▁BMW	-11.5807
▁"(	-11.5807
odo	-11.5808
▁outlet	-11.5808
▁shore	-11.5809
▁density	-11.5811
▁ignored	-11.5814
nLook	-11.5815
▁Ber	-11.5815
▁Wars	-11.5816
▁steal	-11.5818
▁fundraising	-11.582
sur	-11.582
mu	-11.582
▁fragment	-11.5826
▁Plans	-11.5826
sBy	-11.5826
▁Indonesia	-11.5828
-01	-11.5828
/8	-11.5828
script	-11.5831
▁slots	-11.5831
▁Adventure	-11.5832
▁recruit	-11.5834
▁thrive	-11.5838
▁Mining	-11.5841
▁Focus	-11.5845
▁grades	-11.5845
▁protective	-11.5846
▁migration	-11.5847
▁Bluetooth	-11.5847
▁getEntity	-11.5849
▁inclusive	-11.585
bird	-11.5852
▁Besides	-11.5852
▁legendary	-11.5853
market	-11.5855
▁signals	-11.5856
▁newBuilder	-11.5856
▁steady	-11.5856
▁Nothing	-11.5858
▁easiest	-11.5861
▁True	-11.5862
▁180	-11.5863
▁limitations	-11.5864
▁assure	-11.5864
▁62	-11.5865
▁enormous	-11.5865
▁Architecture	-11.5866
default	-11.5867
▁2016.\	-11.5867
such	-11.5869
▁lighter	-11.5871
▁br	-11.5873
▁Registration	-11.5875
▁66	-11.5883
▁Ac	-11.5883
▁5,	-11.5884
▁attendees	-11.5884
▁passage	-11.5885
▁Schools	-11.5886
▁Sure	-11.5887
▁validator	-11.5887
▁consecutive	-11.5888
▁nu	-11.5889
root	-11.589
nia	-11.589
▁Philippines	-11.5891
▁conjunction	-11.5893
cess	-11.5894
▁und	-11.5895
▁vm	-11.59
▁Kentucky	-11.5902
▁rolled	-11.5902
pper	-11.5902
▁steep	-11.5902
▁Guard	-11.5904
▁Dal	-11.5906
rus	-11.5907
▁bicycle	-11.5907
ssel	-11.5908
▁demanding	-11.5908
▁21,	-11.5908
▁charts	-11.5909
ered	-11.5912
▁Files	-11.5912
▁complaints	-11.5913
▁Islands	-11.5913
▁HTTP	-11.5914
LT	-11.5915
▁Rd	-11.5918
▁ju	-11.5919
▁diagnostic	-11.592
▁getSession	-11.5923
▁folk	-11.5924
▁careers	-11.5926
▁Topic	-11.5926
▁Voice	-11.5927
▁Camera	-11.5928
▁8.	-11.5928
5"	-11.5928
▁struct	-11.5929
▁integral	-11.593
▁bat	-11.593
▁bracelet	-11.593
Bus	-11.593
▁hospitality	-11.593
▁Additional	-11.5932
▁transferred	-11.5932
▁Wolf	-11.5933
▁Dean	-11.5934
mis	-11.5936
▁2011,	-11.5937
▁invalid	-11.5938
Common	-11.594
▁begun	-11.5941
▁EN	-11.5942
click	-11.5943
▁Observable	-11.5945
▁8,	-11.5946
▁getComponent	-11.5947
sign	-11.5948
50,000	-11.5948
▁Crystal	-11.5949
▁arr	-11.595
▁manually	-11.5951
▁blade	-11.5951
▁thrilled	-11.5951
▁va	-11.5952
ago	-11.5955
▁shorter	-11.5955
▁onChanged	-11.5955
lg	-11.5955
Decimal	-11.5957
▁reg	-11.5958
angle	-11.5959
▁lenses	-11.596
8%	-11.596
▁slim	-11.596
▁minds	-11.5964
first	-11.5964
inal	-11.5964
▁rewards	-11.5965
▁painful	-11.5965
▁Falls	-11.5967
▁protest	-11.597
▁absence	-11.5972
nWant	-11.5974
AI	-11.5974
▁tries	-11.5976
▁excel	-11.598
▁bake	-11.5982
▁gateway	-11.5987
▁DateTime	-11.5988
eck	-11.5989
Register	-11.5989
▁sunny	-11.5992
DM	-11.5997
▁Treatment	-11.5998
▁surf	-11.5999
▁marijuana	-11.5999
▁versus	-11.5999
▁liver	-11.6001
current	-11.6005
▁Fill	-11.6006
▁15,	-11.6007
aa	-11.6007
▁Oklahoma	-11.6008
▁solely	-11.601
▁marker	-11.601
▁islands	-11.6011
Ha	-11.6011
trans	-11.6012
▁pumpkin	-11.6012
Producer	-11.6013
▁necklace	-11.6013
Dataset	-11.6016
▁ore	-11.6018
▁Wheel	-11.6019
▁toLowerCase	-11.6022
▁Chairman	-11.6023
Aggregation	-11.6024
▁confused	-11.6024
▁Fee	-11.6027
▁Century	-11.6027
▁Fl	-11.6028
▁Wy	-11.6028
raw	-11.6029
▁Prior	-11.6031
▁95	-11.6032
IG	-11.6032
▁Spi	-11.6032
▁herbs	-11.6033
▁Kate	-11.6035
▁Pine	-11.6035
▁welcomed	-11.6036
cker	-11.6037
▁ships	-11.6039
stra	-11.6041
▁concentrate	-11.6041
But	-11.6042
▁betting	-11.6042
Note	-11.6042
▁Meet	-11.6044
▁requireNonNull	-11.6046
▁flame	-11.6047
▁Lan	-11.6047
▁underground	-11.6048
▁Jane	-11.6051
▁dialing	-11.6051
▁steering	-11.6051
TIME	-11.6051
▁viewers	-11.6053
TableName	-11.6055
▁undergraduate	-11.6056
oe	-11.6058
▁Maine	-11.6059
▁reveals	-11.606
leg	-11.6062
▁pl	-11.6065
ction	-11.6067
Sign	-11.6069
▁aging	-11.6069
▁timber	-11.6069
pop	-11.6071
▁Jose	-11.6074
▁Sin	-11.6074
▁tee	-11.6074
Contact	-11.6075
▁surprising	-11.6076
Raw	-11.6076
Plus	-11.6081
uce	-11.6082
eri	-11.6082
▁litigation	-11.6083
pack	-11.6083
▁Tele	-11.6084
▁insulation	-11.6085
Processing	-11.6086
▁Detroit	-11.6088
▁cocktail	-11.6089
sql	-11.609
▁boil	-11.6091
nSp	-11.6091
▁synthetic	-11.6092
▁Bond	-11.6099
Existing	-11.61
▁Rio	-11.61
▁partnerships	-11.61
▁Jacob	-11.6101
59	-11.6101
▁Para	-11.6102
AV	-11.6103
▁Sta	-11.6106
▁DS	-11.6108
▁Got	-11.6108
Series	-11.6108
yr	-11.611
▁Touch	-11.611
▁dozen	-11.6113
ulator	-11.6113
▁$20	-11.6114
content	-11.6115
▁Missouri	-11.6116
▁exams	-11.6116
▁Leadership	-11.6116
▁THIS	-11.6116
▁cooler	-11.6117
▁ES	-11.6121
▁Temple	-11.6122
bot	-11.6122
lat	-11.6124
frame	-11.6125
rag	-11.6129
▁getTable	-11.6129
▁offense	-11.6131
▁Async	-11.6131
▁convention	-11.6133
▁yarn	-11.6135
▁highlighted	-11.6135
▁refers	-11.6136
▁Gulf	-11.6136
▁permitted	-11.6137
pan	-11.6137
▁Clinic	-11.6137
Methods	-11.6138
▁NYC	-11.614
anne	-11.6141
▁employ	-11.6141
Destination	-11.6142
▁Had	-11.6143
Chunk	-11.6147
▁starter	-11.615
▁$50	-11.615
▁Validation	-11.6153
▁discharge	-11.6154
▁distribute	-11.6154
Shape	-11.6157
▁cheapest	-11.6157
▁booked	-11.616
Enable	-11.6163
▁Cream	-11.6163
▁Contract	-11.6163
▁Drop	-11.6165
Matrix	-11.6165
▁Democratic	-11.6165
▁Mari	-11.6166
ific	-11.6169
▁reside	-11.6171
tta	-11.6171
through	-11.6171
nc	-11.6171
Invocation	-11.6171
▁envelope	-11.6171
▁Sk	-11.6172
product	-11.6172
▁fantasy	-11.6172
▁Var	-11.6176
▁Audit	-11.6177
aid	-11.6178
▁discussing	-11.6178
working	-11.6179
▁habitat	-11.6181
▁getConfig	-11.6181
▁Jen	-11.6181
▁1994	-11.6182
▁sunset	-11.6185
ACK	-11.6185
Ver	-11.6185
▁separator	-11.6186
▁courtesy	-11.6186
▁silent	-11.6186
▁Must	-11.6188
Now	-11.6189
▁700	-11.619
▁Utah	-11.6191
▁2013.	-11.6192
▁Pipe	-11.6194
▁Mutable	-11.6195
lig	-11.6196
▁Ref	-11.6196
▁Birthday	-11.6196
▁denied	-11.6196
▁calculated	-11.6198
https	-11.6198
ii	-11.6198
▁relaxation	-11.6199
].	-11.6201
▁Greg	-11.6202
▁portrait	-11.6204
sia	-11.6205
▁practicing	-11.6205
aci	-11.6205
▁stones	-11.6209
▁Hawaii	-11.6216
Renderer	-11.6217
▁intake	-11.6218
Lo	-11.6219
▁essence	-11.622
▁vegan	-11.6221
▁Pur	-11.6222
▁11,	-11.6226
▁ports	-11.6229
ClassLoader	-11.623
une	-11.623
▁colleges	-11.6231
▁fs	-11.6232
-17	-11.6232
▁unset	-11.6234
▁Ly	-11.6235
▁inclusion	-11.6239
▁opposition	-11.6239
▁voting	-11.624
▁Associate	-11.6242
▁cement	-11.6242
▁bump	-11.6243
▁chamber	-11.6243
fect	-11.6243
▁mall	-11.6245
Observer	-11.6246
city	-11.6248
stead	-11.6248
have	-11.6251
▁Horse	-11.6251
▁02	-11.6252
▁__	-11.6252
Ch	-11.6253
bing	-11.6255
▁Kan	-11.6258
▁Associates	-11.626
▁lately	-11.626
nHaving	-11.6261
GO	-11.6262
aga	-11.6265
▁lyrics	-11.6266
▁checks	-11.6266
▁Ana	-11.6266
▁tattoo	-11.6267
aving	-11.6269
than	-11.627
▁gra	-11.6271
▁DA	-11.6271
▁getSimpleName	-11.6272
▁encoding	-11.6272
▁getLocal	-11.6272
▁onions	-11.6273
▁breathing	-11.6274
▁Directory	-11.6275
nDi	-11.6277
channel	-11.6279
shi	-11.628
nVery	-11.6281
▁matched	-11.6283
Priority	-11.6283
▁Apply	-11.6285
Rules	-11.6286
▁Operator	-11.6286
▁Scottish	-11.6288
▁petition	-11.6289
nZ	-11.629
▁mandatory	-11.6291
SN	-11.6291
▁vanilla	-11.6291
▁Edward	-11.6291
PREFIX	-11.6292
▁derived	-11.6294
▁Leather	-11.6294
▁Mur	-11.6294
▁relate	-11.6295
▁floating	-11.6297
▁Literals	-11.6298
▁Leave	-11.6299
▁GE	-11.6299
▁Principal	-11.63
Cookie	-11.63
▁speeds	-11.6301
▁boundaries	-11.6301
▁indicator	-11.6301
▁renewable	-11.6303
▁EM	-11.6303
▁Culture	-11.6304
TypeName	-11.6304
▁Invest	-11.6304
▁Caribbean	-11.6305
▁Identity	-11.631
▁contributing	-11.631
▁jeans	-11.631
▁prospects	-11.6311
▁epic	-11.6312
rent	-11.6312
▁dataSource	-11.6313
▁Commerce	-11.6315
Am	-11.6315
▁Mil	-11.6316
▁puzzle	-11.6316
▁Vision	-11.632
▁ramp	-11.6321
▁Cas	-11.6322
▁Hy	-11.6323
▁stall	-11.6326
▁nations	-11.6326
▁SS	-11.6327
▁Delivery	-11.6328
Vm	-11.6328
▁61	-11.633
bil	-11.6332
8)	-11.6333
▁promised	-11.6334
▁Plastic	-11.6334
▁Beck	-11.6335
nHer	-11.6335
▁complexity	-11.6337
▁spoken	-11.6338
▁Chef	-11.6338
▁ce	-11.6339
▁transformed	-11.6339
tie	-11.6341
▁mutual	-11.6341
▁Root	-11.6345
▁trainer	-11.6345
building	-11.6346
▁chill	-11.6347
Blue	-11.6347
▁bugs	-11.6348
▁competing	-11.6348
▁castle	-11.6349
▁soldiers	-11.6349
▁specify	-11.6351
▁segments	-11.6351
▁episodes	-11.6353
▁redirect	-11.6354
Trust	-11.6356
lang	-11.6356
▁"'	-11.6356
▁Cy	-11.6357
▁cab	-11.636
Creation	-11.6361
▁trials	-11.6362
▁Nat	-11.6362
▁tastes	-11.6363
▁cinema	-11.6369
▁Harris	-11.6372
▁enemy	-11.6372
nJo	-11.6375
other	-11.6377
▁IBM	-11.6378
TU	-11.6378
▁IV	-11.6378
▁tricks	-11.638
Users	-11.6382
RL	-11.6382
▁ps	-11.6383
▁banana	-11.6383
▁setEnabled	-11.6384
▁vessel	-11.6384
erator	-11.6385
▁"%	-11.6385
▁hyper	-11.6386
Tracker	-11.6386
MG	-11.6387
▁Tickets	-11.6387
▁computing	-11.6387
▁graduation	-11.6387
▁pairs	-11.6388
▁renovation	-11.6389
▁pixels	-11.6392
bet	-11.6395
▁tv	-11.6396
mine	-11.6399
▁recommendation	-11.6399
▁Instance	-11.6401
▁dessert	-11.6403
▁variations	-11.6405
zu	-11.6406
Collector	-11.6406
▁palette	-11.6407
▁compose	-11.6408
▁cozy	-11.6408
▁experimental	-11.6409
▁Tools	-11.6409
▁waterproof	-11.641
▁cleanup	-11.6411
▁spice	-11.6412
1/	-11.6412
▁empower	-11.6414
▁Dam	-11.6414
▁traditions	-11.6414
▁creator	-11.6419
▁coastal	-11.6419
▁chunk	-11.642
▁VI	-11.642
▁Mayor	-11.6424
▁digest	-11.6424
hop	-11.6424
High	-11.6425
▁jersey	-11.6426
▁sorted	-11.6426
El	-11.6428
▁Seven	-11.6428
nWill	-11.6428
Live	-11.6429
mouth	-11.6429
▁gaining	-11.643
▁RO	-11.6431
▁checkNotNull	-11.6432
▁trauma	-11.6435
▁stmt	-11.6435
▁Results	-11.6436
▁prospective	-11.6438
▁Cl	-11.644
suit	-11.6443
▁accessed	-11.6443
▁Partners	-11.6444
▁Anthony	-11.6445
cost	-11.6445
▁lean	-11.6446
Native	-11.6446
▁strings	-11.6446
Reply	-11.6447
▁preventing	-11.6449
▁chairman	-11.6451
Cast	-11.6453
Generic	-11.6453
▁backing	-11.6453
Clear	-11.6454
▁Therapy	-11.6455
▁drawings	-11.6455
▁Workshop	-11.6456
▁agriculture	-11.646
▁Gray	-11.6461
▁tale	-11.6461
rio	-11.6463
▁seeks	-11.6466
iling	-11.6467
▁Sar	-11.6468
▁differently	-11.6468
Allow	-11.6471
note	-11.6472
▁Immutable	-11.6475
▁clay	-11.6475
▁1-	-11.6475
Primitive	-11.6478
▁Technologies	-11.6479
▁Mumbai	-11.6479
ABLE	-11.6481
▁AN	-11.6481
▁Morgan	-11.6481
▁appealing	-11.6482
Attachment	-11.6484
igh	-11.6487
▁surround	-11.6488
▁Rental	-11.6488
▁lime	-11.6489
igo	-11.6489
▁ears	-11.6491
▁weren	-11.6491
sar	-11.6492
▁dont	-11.6498
▁compiled	-11.6501
▁Could	-11.6504
▁devoted	-11.6506
▁diagnosed	-11.6507
▁destroyed	-11.651
Initial	-11.6511
▁bell	-11.6511
▁robot	-11.6515
▁weapon	-11.6517
Media	-11.6519
▁Lead	-11.6519
LF	-11.652
eno	-11.6521
▁genre	-11.6523
▁fixture	-11.6523
▁disabilities	-11.6523
▁dispatch	-11.6524
tom	-11.6525
Original	-11.6525
▁brew	-11.6526
▁Spec	-11.6526
▁specialize	-11.6527
▁informative	-11.6529
▁getVersion	-11.6529
▁Honor	-11.6529
▁Saudi	-11.653
▁sixth	-11.653
▁Mus	-11.653
▁oh	-11.6533
▁centuries	-11.6533
rier	-11.6533
Put	-11.6535
▁cultures	-11.6535
▁Seat	-11.6536
▁unlikely	-11.6536
Install	-11.6539
▁magnetic	-11.654
▁Lang	-11.6541
▁Adobe	-11.6542
▁connectivity	-11.6543
▁Pic	-11.6543
▁Volume	-11.6545
▁organised	-11.6545
▁FI	-11.6546
charge	-11.6547
▁tablets	-11.6547
▁terrible	-11.6547
▁ought	-11.6547
▁Ranch	-11.6548
▁Script	-11.655
▁Grove	-11.6551
chen	-11.6551
▁Pictures	-11.6552
WS	-11.6552
▁Parliament	-11.6552
ummer	-11.6555
▁pond	-11.6557
RU	-11.6558
iel	-11.6559
▁assault	-11.6562
▁AV	-11.6564
▁veterans	-11.6564
▁puts	-11.6565
▁OWL	-11.6565
▁radical	-11.6567
▁Branch	-11.6569
east	-11.6571
▁voucher	-11.6572
▁clever	-11.6572
▁smoothly	-11.6577
▁Plugin	-11.6577
▁acceptable	-11.6577
Started	-11.6578
▁PT	-11.658
nin	-11.658
▁Cabinet	-11.6583
▁drove	-11.6583
▁gu	-11.6585
▁somebody	-11.6585
▁Extra	-11.6587
▁junk	-11.6589
▁gross	-11.659
Example	-11.659
▁gum	-11.6591
▁Tell	-11.6591
Comp	-11.6591
nDespite	-11.6592
▁Moore	-11.6592
▁Unlike	-11.6594
phy	-11.6594
▁rustic	-11.6595
amine	-11.6595
▁Matcher	-11.6595
model	-11.6596
▁disposal	-11.6596
▁voters	-11.6597
▁lined	-11.6598
▁excuse	-11.6599
▁stays	-11.6599
▁Parts	-11.66
▁refuse	-11.6606
▁supplements	-11.6607
eria	-11.6608
▁waist	-11.6609
▁brake	-11.6609
▁PE	-11.6613
▁Complex	-11.6613
ContentType	-11.6614
▁Weight	-11.6615
▁Swiss	-11.6616
zel	-11.6619
▁utilized	-11.662
very	-11.6621
▁pencil	-11.6621
▁Met	-11.6623
▁FC	-11.6624
▁Photography	-11.6624
▁ties	-11.6624
Cr	-11.6624
▁headquarters	-11.6626
▁launching	-11.6627
▁Sleep	-11.6628
▁Ok	-11.6632
horn	-11.6632
▁BY	-11.6634
▁pension	-11.6635
▁appointments	-11.6638
tha	-11.6639
▁Taiwan	-11.6641
▁logical	-11.6642
001	-11.6643
▁Twin	-11.6646
▁addressing	-11.6647
▁warrant	-11.6648
een	-11.6649
▁(1)	-11.665
ech	-11.6651
SetProperty	-11.6651
▁Util	-11.6655
▁boutique	-11.6656
UUID	-11.6656
rot	-11.6659
DD	-11.6663
Gateway	-11.6665
▁Greece	-11.6666
Care	-11.6666
▁agreements	-11.6667
▁Awesome	-11.6671
▁dealership	-11.6671
▁pat	-11.6672
▁getDescription	-11.6673
▁dozens	-11.6674
Abstract	-11.6675
▁OH	-11.6675
▁Costa	-11.6676
▁sleeve	-11.6678
▁blogging	-11.6679
UC	-11.668
▁lobby	-11.6681
▁orchestra	-11.6681
Len	-11.6681
▁22,	-11.6683
cThis	-11.6683
▁leak	-11.6685
INE	-11.6686
▁keyword	-11.6686
▁Grace	-11.6686
▁beta	-11.6688
ref	-11.6688
▁Includes	-11.6689
white	-11.669
-14	-11.6691
▁alleged	-11.6693
▁Chain	-11.6696
▁rig	-11.6697
▁nano	-11.6698
▁GB	-11.6699
▁investor	-11.67
▁transit	-11.6701
image	-11.6701
▁simultaneously	-11.6702
Actions	-11.6702
▁Throughout	-11.6703
stage	-11.6705
▁ti	-11.6706
▁centres	-11.6709
▁dairy	-11.671
▁Kra	-11.6711
▁USER	-11.6712
▁additionally	-11.6712
▁branding	-11.6714
▁orientation	-11.6715
uda	-11.6716
▁bikes	-11.6718
stanceResource	-11.6719
admin	-11.6719
▁solving	-11.6719
ule	-11.6723
▁rentals	-11.6724
▁duplicate	-11.6724
▁57	-11.6726
▁salon	-11.6726
▁recycled	-11.6727
▁compromise	-11.6728
met	-11.6728
▁Cheap	-11.6729
cil	-11.6733
txt	-11.6734
▁norm	-11.6734
▁candle	-11.6734
▁favour	-11.6735
▁anonymous	-11.6735
▁Khan	-11.6736
Ok	-11.6737
▁minerals	-11.6737
▁isPresent	-11.6739
▁getClient	-11.6742
▁remodel	-11.6744
▁LE	-11.6744
Workflow	-11.6745
tru	-11.6745
▁threshold	-11.6745
alia	-11.6746
▁affiliate	-11.6746
▁Communication	-11.6747
▁Switzerland	-11.6747
▁ethical	-11.6748
SB	-11.675
▁tomato	-11.675
mun	-11.675
nom	-11.6752
▁zoom	-11.6754
▁Designed	-11.6755
bie	-11.6756
acy	-11.6757
▁rotation	-11.6758
▁essays	-11.6758
mock	-11.6759
▁cycling	-11.6759
writing	-11.6759
▁Inn	-11.6762
vision	-11.6763
▁Option	-11.6763
Game	-11.6764
▁Official	-11.6765
▁adjacent	-11.6765
▁Crew	-11.6766
▁metres	-11.6766
▁pulling	-11.6767
Authorization	-11.677
Download	-11.6772
▁regret	-11.6776
▁accurately	-11.6776
▁19,	-11.6778
▁premiere	-11.678
▁automobile	-11.6781
ked	-11.6786
▁Degree	-11.6788
▁Walker	-11.6789
▁dryer	-11.679
therapy	-11.679
▁defend	-11.6795
▁bankruptcy	-11.6796
▁peers	-11.6796
▁Amazing	-11.6801
▁assisted	-11.6801
nVisit	-11.6802
▁prospect	-11.6803
▁getHeader	-11.6804
▁Exp	-11.6805
▁hell	-11.6805
▁topped	-11.6805
project	-11.6805
▁horror	-11.6806
▁Alexander	-11.6806
▁impacts	-11.6807
▁invested	-11.6808
▁Susan	-11.6808
▁advisor	-11.681
event	-11.681
ional	-11.681
▁ya	-11.681
▁trademark	-11.6812
▁Foreign	-11.6812
▁mounting	-11.6814
umble	-11.6815
nPosted	-11.6815
▁baked	-11.6815
▁alternate	-11.6816
▁blocked	-11.6816
ista	-11.682
▁Hal	-11.682
▁Antonio	-11.6821
▁Clo	-11.6823
▁conferences	-11.6824
Warning	-11.6825
▁fraction	-11.6826
▁getResult	-11.6829
▁'"	-11.6831
looking	-11.6831
▁decorations	-11.6831
gas	-11.6832
▁Andy	-11.6832
▁bun	-11.6833
got	-11.6835
▁BI	-11.6835
2017	-11.6836
door	-11.6838
wy	-11.6838
▁fare	-11.684
▁updating	-11.6841
▁columnName	-11.6842
▁benchmark	-11.6846
Catalog	-11.6846
▁heaven	-11.6849
VC	-11.685
▁corresponding	-11.685
▁Wallpaper	-11.6851
▁talents	-11.6851
Upload	-11.6852
called	-11.6853
▁scam	-11.6854
▁Current	-11.6854
Exchange	-11.6856
▁pollution	-11.6856
▁Ground	-11.6857
▁Mah	-11.6858
▁RV	-11.6859
▁ds	-11.686
▁conscious	-11.686
▁Lou	-11.6861
▁Supplier	-11.6861
▁31,	-11.6863
rose	-11.6865
▁Barn	-11.6866
commerce	-11.6871
▁optimization	-11.6871
▁imaging	-11.6871
▁Doc	-11.6872
igan	-11.6874
rain	-11.6874
▁13,	-11.6875
▁SL	-11.6876
▁executives	-11.6876
▁Unique	-11.6876
▁railway	-11.6879
▁lining	-11.688
▁Federation	-11.6881
wer	-11.6882
▁gluten	-11.6882
▁getTest	-11.6884
lets	-11.6885
6%	-11.6888
▁OP	-11.6888
▁Activity	-11.6889
▁Publisher	-11.6889
cul	-11.6889
▁Tru	-11.689
nKa	-11.689
▁fired	-11.6891
▁Years	-11.6894
▁wipe	-11.6895
format	-11.6896
lad	-11.6897
▁unfortunately	-11.69
Blob	-11.6901
DT	-11.6902
▁optical	-11.6903
two	-11.6906
▁63	-11.6908
▁findBy	-11.6909
▁Labor	-11.6909
▁pupils	-11.6909
cam	-11.6911
▁Interest	-11.6912
▁Alpha	-11.6912
Real	-11.6915
▁HA	-11.6916
▁melt	-11.6916
▁AF	-11.6918
▁logistics	-11.6922
▁aroma	-11.6925
Factor	-11.6925
▁Independent	-11.6925
▁Gall	-11.6927
▁curtains	-11.6928
▁alignment	-11.6929
▁Shore	-11.6932
▁Bee	-11.6932
▁anticipated	-11.6934
▁stat	-11.6934
nCom	-11.6934
▁Train	-11.6936
▁Wire	-11.6936
▁Thai	-11.6937
▁corners	-11.6937
▁captain	-11.6938
▁conducting	-11.6938
▁praise	-11.6942
▁inviting	-11.6942
▁internship	-11.6943
▁boom	-11.6944
▁Details	-11.6944
lies	-11.6947
Ignore	-11.6947
nFree	-11.6947
cock	-11.695
▁hasn	-11.695
DF	-11.695
cept	-11.6951
arch	-11.6951
▁Coin	-11.6952
▁getSelected	-11.6952
▁forgotten	-11.6953
lio	-11.6954
▁Judge	-11.6955
▁finds	-11.6956
▁23,	-11.6957
ACE	-11.6958
cross	-11.6958
▁MT	-11.6959
▁acceptance	-11.6962
▁rug	-11.6962
▁spoon	-11.6963
▁Kings	-11.6964
Seconds	-11.6968
share	-11.697
bre	-11.697
▁barrier	-11.6971
actic	-11.6972
Mark	-11.6972
▁damp	-11.6973
▁singles	-11.6975
▁observation	-11.6975
wen	-11.6977
▁votes	-11.6977
rad	-11.6977
Virtual	-11.6978
▁Fri	-11.6981
Marker	-11.6982
CB	-11.6982
anger	-11.6982
miss	-11.6983
iate	-11.6986
▁evt	-11.6986
▁macro	-11.6986
▁toddler	-11.6988
▁TH	-11.6993
design	-11.6993
▁Agreement	-11.6993
Dynamic	-11.6993
▁Really	-11.6994
▁2015.\	-11.6997
▁pork	-11.6997
cle	-11.6998
close	-11.7001
▁fallen	-11.7002
▁Binary	-11.7002
▁SUV	-11.7002
▁2012.	-11.7004
zing	-11.7006
▁Syn	-11.7006
▁tribute	-11.7007
▁lightly	-11.7009
▁pound	-11.7013
▁attain	-11.7014
▁0.5	-11.7014
▁Dor	-11.7014
wire	-11.7015
AGE	-11.7015
▁Border	-11.7016
DL	-11.7017
HP	-11.7019
spire	-11.7019
▁considerable	-11.702
***	-11.7023
▁intensive	-11.7024
NI	-11.7026
▁intValue	-11.7027
▁winds	-11.7027
▁billing	-11.703
▁failing	-11.7032
iki	-11.7034
▁balcony	-11.7034
nSi	-11.7035
▁Artist	-11.7035
▁executed	-11.7036
loc	-11.7039
▁defensive	-11.704
Env	-11.704
▁reportedly	-11.7041
ReadOnly	-11.7042
▁permits	-11.7042
Permissions	-11.7043
▁Gary	-11.7045
▁30-	-11.7046
▁governments	-11.7047
bor	-11.705
▁Cleveland	-11.705
Switch	-11.705
▁Housing	-11.705
▁icons	-11.7051
▁biological	-11.7051
itt	-11.7052
▁magazines	-11.7054
▁Universal	-11.7055
4-	-11.7056
▁sporting	-11.7057
los	-11.706
▁12-	-11.706
▁correction	-11.706
▁Netflix	-11.706
▁Orlando	-11.706
▁psychological	-11.706
▁14,	-11.7061
2015	-11.7061
center	-11.7063
izz	-11.7064
▁gig	-11.7068
▁spill	-11.7071
pic	-11.7071
Ad	-11.7072
▁dispute	-11.7075
▁97	-11.7075
▁outline	-11.7075
cip	-11.7078
sol	-11.7078
▁porch	-11.708
iation	-11.7081
bul	-11.7082
▁OFF	-11.7083
▁Browse	-11.7084
▁GM	-11.7084
▁safer	-11.7085
▁AB	-11.7085
present	-11.7085
▁rope	-11.7085
nova	-11.7085
▁Str	-11.7085
▁Graduate	-11.7086
▁Dublin	-11.7086
▁harvest	-11.7087
▁Stand	-11.7089
wn	-11.709
▁retailer	-11.709
▁NAME	-11.7092
▁sketch	-11.7092
Disabled	-11.7096
▁curve	-11.7097
▁commands	-11.71
▁valued	-11.71
▁Muslim	-11.7101
She	-11.7101
▁locksmith	-11.7102
Added	-11.7104
▁polished	-11.7105
▁romance	-11.7107
▁unnecessary	-11.7107
▁mum	-11.7109
cht	-11.7109
▁rounds	-11.7111
▁McG	-11.7112
EClass	-11.7113
nPre	-11.7117
ogen	-11.712
▁SM	-11.712
▁1992	-11.7121
erson	-11.7121
▁Days	-11.7122
inger	-11.7123
▁mailing	-11.7124
▁bonds	-11.7125
▁styling	-11.7127
ega	-11.7128
▁Contemporary	-11.7128
▁Aid	-11.7128
▁Pure	-11.713
▁angel	-11.7131
▁institute	-11.7133
▁")"	-11.7133
▁logic	-11.7134
inated	-11.7139
▁weekends	-11.7142
▁Carpet	-11.7144
ying	-11.7144
▁marking	-11.7144
▁08	-11.7146
fold	-11.7148
oul	-11.715
▁pools	-11.7151
▁accepting	-11.7153
▁Crown	-11.7153
▁rewarding	-11.7154
ante	-11.7155
▁classified	-11.7155
Life	-11.7157
▁Cms	-11.7159
Creator	-11.7159
▁rel	-11.716
▁DataType	-11.7162
▁Getting	-11.7162
▁Shell	-11.7162
oi	-11.7167
pid	-11.7167
▁facebook	-11.717
▁101	-11.7171
imp	-11.7172
▁vessels	-11.7172
▁reaches	-11.7173
▁Rail	-11.7174
▁freezer	-11.7175
rew	-11.7176
ily	-11.7177
Tasks	-11.7177
▁pickup	-11.7178
Machine	-11.7179
▁getIndex	-11.718
▁Islamic	-11.7182
▁vanity	-11.7183
▁packs	-11.7183
▁26,	-11.7186
TON	-11.7186
*(	-11.7187
lv	-11.7187
Fetch	-11.7188
rating	-11.7188
Encoder	-11.719
▁JAXBElement	-11.719
▁participant	-11.7196
▁Gardens	-11.7196
▁Scan	-11.7197
▁thesis	-11.7198
▁28,	-11.7198
▁exclude	-11.7199
▁getChild	-11.72
▁DR	-11.7202
nam	-11.7202
▁consultants	-11.7206
▁Fr	-11.7208
bri	-11.7208
▁seminar	-11.7209
▁thumb	-11.721
▁Hunter	-11.721
▁compelling	-11.7211
▁Programme	-11.7212
Private	-11.7212
▁Greater	-11.7215
▁vet	-11.7215
▁dressed	-11.7216
▁adhere	-11.7217
▁fragrance	-11.7221
▁burst	-11.7223
nDa	-11.7223
▁isNull	-11.7225
▁Chart	-11.7225
Visit	-11.7225
▁Coll	-11.7225
▁Emergency	-11.7226
unt	-11.7227
▁projection	-11.723
▁supervisor	-11.7232
best	-11.7233
utter	-11.7234
train	-11.7236
▁clarity	-11.7237
▁Dynamic	-11.7238
minate	-11.7239
Entities	-11.7243
▁ANY	-11.7244
▁Offer	-11.7244
▁1950	-11.7245
▁encourages	-11.7246
▁Permission	-11.7246
▁royal	-11.7247
Customer	-11.7248
▁restored	-11.7248
▁organizing	-11.7248
▁cylinder	-11.7249
▁restricted	-11.7249
▁ingredient	-11.7249
▁promptly	-11.7251
▁setId	-11.7251
▁structured	-11.7252
▁patience	-11.7253
▁Egypt	-11.7253
▁Palace	-11.7254
▁Boot	-11.7255
▁Enum	-11.7256
lite	-11.7256
▁Rad	-11.7257
ounce	-11.7259
▁orElse	-11.7259
▁speaks	-11.7261
▁doll	-11.7261
▁shield	-11.7263
▁dealers	-11.7264
▁giveaway	-11.7267
▁beneath	-11.7269
▁bias	-11.7271
ude	-11.7271
▁dao	-11.7273
▁10,000	-11.7273
▁revolution	-11.7273
▁spine	-11.7274
author	-11.7278
▁Raw	-11.7279
▁urgent	-11.728
▁verified	-11.728
length	-11.728
▁Export	-11.728
▁Bytes	-11.728
▁Often	-11.7283
▁thirty	-11.7284
▁driveway	-11.7286
▁toList	-11.7287
▁Built	-11.7288
eli	-11.7288
▁odds	-11.7291
▁gonna	-11.7296
▁Israeli	-11.7297
▁EL	-11.7297
CF	-11.7298
▁qua	-11.73
▁workspace	-11.73
'"	-11.73
▁bones	-11.7301
▁Organic	-11.7304
▁harness	-11.7306
▁Kid	-11.7308
ND	-11.7308
▁buses	-11.7309
▁seniors	-11.7309
TT	-11.731
▁echo	-11.731
▁withdraw	-11.7312
▁stolen	-11.7313
▁GP	-11.7315
▁17,	-11.7316
▁fed	-11.7317
▁ci	-11.7318
▁gradually	-11.7318
▁recognised	-11.7319
writer	-11.732
▁independence	-11.7321
▁deciding	-11.7322
▁16,	-11.7323
Micro	-11.7323
▁corporations	-11.7325
-13	-11.7325
▁spy	-11.7326
▁catering	-11.7326
▁pumps	-11.7326
▁freeze	-11.7326
▁scheduling	-11.7327
nWelcome	-11.7328
pat	-11.7329
▁adjusted	-11.733
?)	-11.733
▁tokens	-11.7331
ema	-11.7332
Refresh	-11.7336
nge	-11.7336
nEnjoy	-11.7337
▁brochure	-11.7337
▁rehabilitation	-11.7337
▁browsing	-11.7338
▁cargo	-11.7338
Diff	-11.7338
▁Cold	-11.7338
EG	-11.7341
▁composer	-11.7344
Contains	-11.7344
access	-11.7345
keeper	-11.7347
▁SH	-11.7347
nThose	-11.7348
LP	-11.7348
▁Rain	-11.7349
brook	-11.7351
▁verse	-11.7353
▁Alan	-11.7355
Release	-11.7355
▁SSL	-11.7359
▁nut	-11.7359
▁Captain	-11.7359
▁rust	-11.736
▁sustain	-11.7366
▁selector	-11.7366
▁handful	-11.7368
▁pillow	-11.7368
▁NBA	-11.7369
Modified	-11.7371
▁Oracle	-11.7372
▁basics	-11.7373
Audit	-11.7373
▁Coupon	-11.7373
▁getRow	-11.7374
▁iTunes	-11.7375
▁Buck	-11.7375
▁58	-11.7375
aj	-11.7377
nBa	-11.7377
▁78	-11.7381
▁Ce	-11.7381
dh	-11.7381
▁ResultSet	-11.7381
='	-11.7385
▁priorities	-11.7387
▁License	-11.7387
▁inexpensive	-11.739
▁travelers	-11.739
▁fiscal	-11.7391
▁precisely	-11.7397
▁columnIndex	-11.7398
ulate	-11.7399
▁restart	-11.7399
Retry	-11.74
Transformer	-11.7401
▁Serve	-11.7401
91\	-11.7401
▁bro	-11.7401
▁Kin	-11.7404
Viewer	-11.7404
your	-11.7406
▁picnic	-11.7407
▁HE	-11.7407
▁affecting	-11.741
driven	-11.7411
▁HVAC	-11.7412
▁cannabis	-11.7412
mid	-11.7412
▁cha	-11.7413
▁hardly	-11.7413
abi	-11.7413
▁specification	-11.7414
▁encoded	-11.7414
▁Dy	-11.7414
▁9,	-11.7414
▁vibe	-11.7416
▁waitFor	-11.7416
eon	-11.7417
▁underneath	-11.7417
▁installations	-11.7418
▁RAM	-11.7418
▁pros	-11.7418
▁07	-11.7419
AIL	-11.7419
▁Stack	-11.7423
▁Mediterranean	-11.7423
▁Tokyo	-11.7423
▁Arab	-11.7424
▁68	-11.7424
Pipeline	-11.7425
▁buzz	-11.7425
Errors	-11.7427
▁assignments	-11.7428
Override	-11.743
▁assists	-11.7431
▁Aqua	-11.7431
▁3:	-11.7432
▁influenced	-11.7433
▁lbs	-11.7433
▁Empire	-11.7434
Operations	-11.7434
tc	-11.7437
rink	-11.7438
motion	-11.7439
Mutable	-11.744
▁intersection	-11.7442
Assertion	-11.7447
▁Wayne	-11.7448
tine	-11.745
Publish	-11.7451
▁barrel	-11.7452
▁obligation	-11.7454
trip	-11.7455
▁counts	-11.7456
ota	-11.7457
▁bitter	-11.7457
▁Hamilton	-11.746
▁Hit	-11.7461
▁Authentication	-11.7461
▁crossing	-11.7461
▁milestone	-11.7461
▁architect	-11.7463
▁delightful	-11.7465
Material	-11.7467
▁Iraq	-11.7468
▁3.0	-11.7469
▁physicians	-11.747
▁iter	-11.7475
▁Count	-11.7476
▁teens	-11.7476
▁probe	-11.7476
▁upgraded	-11.7479
▁seamless	-11.748
nHigh	-11.7481
II	-11.7483
kes	-11.7486
▁brave	-11.7488
chy	-11.7489
▁duo	-11.7489
▁breach	-11.749
▁1993	-11.749
ulating	-11.7491
▁washer	-11.7492
nMeanwhile	-11.7492
▁clearance	-11.7493
▁diesel	-11.7493
▁divide	-11.7494
▁surroundings	-11.7495
▁wage	-11.75
▁crypto	-11.75
▁Retail	-11.75
2000	-11.75
▁CM	-11.7503
▁Features	-11.7504
▁creamy	-11.7508
?"\	-11.7509
big	-11.751
ERROR	-11.751
▁$15	-11.7511
duct	-11.7512
▁Ang	-11.7512
▁elderly	-11.7513
tour	-11.7514
▁counseling	-11.7516
▁Partner	-11.7518
▁mysterious	-11.7519
▁ham	-11.7522
▁lane	-11.7522
yes	-11.7522
▁independently	-11.7523
▁albums	-11.7525
▁Dia	-11.7525
▁dashboard	-11.7526
▁boring	-11.7526
local	-11.7526
▁25,	-11.7527
▁therapeutic	-11.7527
tim	-11.7528
-30	-11.7528
▁#2	-11.7528
▁searches	-11.7529
▁trains	-11.7531
▁barely	-11.7532
▁achievements	-11.7534
▁Medicare	-11.7536
▁loc	-11.7536
▁wings	-11.7536
▁warmth	-11.7538
▁BS	-11.7539
▁coil	-11.7539
Depth	-11.754
arrow	-11.754
▁getNext	-11.754
▁WiFi	-11.7542
localhost	-11.7545
▁ruling	-11.7547
▁Craig	-11.7547
▁Lodge	-11.7547
eat	-11.7548
Matching	-11.7548
Extra	-11.7549
▁Concrete	-11.7549
▁Cow	-11.755
uit	-11.755
▁arrow	-11.7551
▁keywords	-11.7551
▁JsonObject	-11.7552
▁getBean	-11.7552
erg	-11.7553
▁batter	-11.7553
▁sailing	-11.7554
▁Supply	-11.7554
▁playground	-11.7554
ici	-11.7554
▁30,	-11.7554
▁collector	-11.7555
Candidate	-11.7555
ASS	-11.7556
Formatter	-11.7557
▁Mirror	-11.7558
▁margin	-11.7558
▁confidential	-11.7562
nHome	-11.7564
iga	-11.7565
▁Lisa	-11.7565
▁Move	-11.7565
Business	-11.7567
▁establishing	-11.7568
▁Dad	-11.7569
▁External	-11.7571
Side	-11.7571
▁paired	-11.7571
▁Ignite	-11.7574
▁intensity	-11.7574
▁tuple	-11.7574
▁Kenya	-11.7574
▁beliefs	-11.7574
▁Hop	-11.7577
DefaultInstance	-11.7577
▁notified	-11.7578
▁getMethod	-11.7579
▁respected	-11.758
Ctx	-11.7583
▁attempting	-11.7584
▁Luxury	-11.7584
▁pipes	-11.7587
▁variant	-11.7589
▁jurisdiction	-11.759
Cap	-11.759
Rel	-11.7592
Phase	-11.7592
▁Gil	-11.7593
bert	-11.7595
▁Audi	-11.7596
client	-11.7598
▁thickness	-11.7599
▁eastern	-11.7599
▁Dry	-11.76
▁blockchain	-11.7601
▁exotic	-11.7601
▁Risk	-11.7602
▁cakes	-11.7603
▁fortunate	-11.7606
▁sliding	-11.7606
▁kidney	-11.7607
▁linear	-11.7609
▁Gri	-11.7609
▁Jazz	-11.7611
▁12,	-11.7616
▁sentiment	-11.7617
far	-11.7618
▁VR	-11.7618
▁recreational	-11.7618
FIELD	-11.7619
limit	-11.7619
STRING	-11.7621
▁mentor	-11.7621
▁adapted	-11.7622
▁Orleans	-11.7623
0.00	-11.7623
▁Sets	-11.7625
▁dropping	-11.7625
Validate	-11.7627
▁planting	-11.7627
▁Individual	-11.7627
▁Rat	-11.7628
Hello	-11.763
▁integer	-11.7631
▁matrix	-11.7633
▁straightforward	-11.7634
Black	-11.7634
INT	-11.7634
▁wheat	-11.7635
▁Whit	-11.7635
▁interpret	-11.7636
eral	-11.7636
▁functioning	-11.7638
▁longest	-11.7638
▁autumn	-11.7639
▁paragraph	-11.764
park	-11.764
PROPERTY	-11.7641
Reset	-11.7642
▁riders	-11.7644
▁Canon	-11.7648
▁elite	-11.7652
/3	-11.7652
bad	-11.7654
location	-11.7654
▁dev	-11.7654
▁labour	-11.7656
▁Trace	-11.7656
▁attempted	-11.7659
pher	-11.7659
▁painter	-11.766
▁Past	-11.7661
▁Several	-11.7661
▁coordinator	-11.7661
▁Discount	-11.7662
▁Gor	-11.7662
▁smartphones	-11.7663
TED	-11.7665
▁ruin	-11.7666
▁handed	-11.7666
Ho	-11.7669
▁delta	-11.7669
LL	-11.7669
▁Ship	-11.7669
▁grows	-11.7671
▁determination	-11.7672
▁Steam	-11.7672
▁getDocument	-11.7673
▁drone	-11.7674
▁pun	-11.7677
▁disappear	-11.7677
▁Zip	-11.7678
▁27,	-11.7678
▁Jam	-11.7678
▁Barcelona	-11.768
Asset	-11.7681
▁Julie	-11.7682
▁scanner	-11.7685
application	-11.7687
▁Doors	-11.7688
▁pharmaceutical	-11.7688
▁Albert	-11.7689
oodle	-11.7689
▁Tel	-11.7689
ologist	-11.7691
▁APPLICATION	-11.7692
▁asks	-11.7692
▁acrylic	-11.7694
plus	-11.7694
Mask	-11.7695
VER	-11.7699
▁Kat	-11.77
Bounds	-11.7701
▁jack	-11.7702
Components	-11.7702
▁fade	-11.7703
EO	-11.7704
▁Connecticut	-11.7705
Indicator	-11.7705
▁cartoon	-11.7706
▁crust	-11.7709
▁Success	-11.771
Separator	-11.771
▁Louisiana	-11.771
▁Defense	-11.771
▁tuition	-11.771
▁84	-11.7715
▁generating	-11.7716
▁collaborate	-11.7716
▁outlets	-11.7717
atter	-11.772
▁Spark	-11.772
▁UTF	-11.7721
▁Photos	-11.7722
▁SMS	-11.7723
▁suspended	-11.7724
▁march	-11.7725
Like	-11.7729
▁$25	-11.7731
▁privilege	-11.7731
Deleted	-11.7732
▁76	-11.7732
▁Leader	-11.7732
▁Electronic	-11.7733
▁homework	-11.7733
▁varying	-11.7733
Assign	-11.7735
▁indication	-11.7738
▁Whatever	-11.7738
▁facet	-11.7739
▁presidential	-11.774
▁Mai	-11.7741
comp	-11.7742
▁affairs	-11.7743
orphaned	-11.7743
▁enhancing	-11.7743
▁gains	-11.7745
▁Hold	-11.7745
aste	-11.7746
LM	-11.7747
▁Blood	-11.7749
▁promotions	-11.775
stan	-11.7751
▁wo	-11.7753
▁introducing	-11.7754
▁<<	-11.7756
▁carb	-11.7757
Peer	-11.7759
asi	-11.7759
▁stimulate	-11.776
▁throwing	-11.776
nStudents	-11.776
▁Allow	-11.7761
shot	-11.7761
fest	-11.7762
kel	-11.7763
Render	-11.7763
▁Delta	-11.7764
▁ranges	-11.7764
▁Ur	-11.7766
▁Steven	-11.7766
Locale	-11.7766
▁CP	-11.7767
▁sneak	-11.7768
▁tears	-11.7769
▁Spin	-11.7769
▁sec	-11.7769
▁67	-11.777
▁CAN	-11.7771
rug	-11.7771
generation	-11.7771
▁honour	-11.7772
iated	-11.7775
▁forums	-11.7779
▁Liverpool	-11.778
▁html	-11.778
Mac	-11.7781
▁Feed	-11.7784
▁Schedule	-11.7784
Include	-11.7786
Conversion	-11.7786
▁bookmark	-11.7787
▁galleries	-11.7788
▁110	-11.7788
static	-11.7789
▁Ren	-11.7789
▁wi	-11.779
▁regime	-11.7792
▁8-	-11.7792
▁getBase	-11.7793
tation	-11.7793
/10	-11.7793
▁HIV	-11.7793
▁pig	-11.7794
▁suggestion	-11.7794
▁authorization	-11.7797
▁conveniently	-11.7797
▁fails	-11.7797
▁intuitive	-11.7799
wal	-11.7801
▁Subject	-11.7803
▁transparency	-11.7804
Roles	-11.7806
▁Luke	-11.7808
▁incoming	-11.7809
▁enforce	-11.7809
item	-11.781
▁2009,	-11.781
▁Atlas	-11.7814
▁loyal	-11.7814
etta	-11.7815
▁writes	-11.7815
boat	-11.7819
FP	-11.7822
▁holders	-11.7822
▁tweet	-11.7824
▁Kind	-11.7824
ges	-11.7825
▁Cruise	-11.7825
TOR	-11.7825
▁RC	-11.7825
▁exploit	-11.7825
mount	-11.7826
▁conservative	-11.7826
▁governance	-11.7827
▁farming	-11.7827
▁Beat	-11.7827
▁Legend	-11.7829
▁Consider	-11.783
Background	-11.7831
BufferException	-11.7831
▁accredited	-11.7832
▁unwanted	-11.7832
anny	-11.7834
▁banner	-11.7837
▁Ky	-11.7837
▁shirts	-11.7842
▁promising	-11.7843
▁obtaining	-11.7844
Flags	-11.7844
▁Fred	-11.7844
▁axis	-11.7845
▁Buffer	-11.7845
▁Ye	-11.7845
▁rolls	-11.7847
bid	-11.7848
▁Circle	-11.7849
▁getP	-11.7849
Direction	-11.7849
▁gut	-11.785
▁Pot	-11.7851
▁vitamins	-11.7851
▁sellers	-11.7851
▁Anyone	-11.7853
▁cry	-11.7853
▁Concept	-11.7853
▁Jun	-11.7854
▁ui	-11.7856
▁niche	-11.7857
▁mint	-11.7858
ider	-11.7859
▁SI	-11.7859
▁depart	-11.786
nFollowing	-11.786
▁JSONObject	-11.7862
▁Edit	-11.7864
▁Opera	-11.7864
gro	-11.7864
▁Serializable	-11.7864
chin	-11.7867
▁concluded	-11.7868
Privilege	-11.7868
▁offline	-11.7869
task	-11.7869
False	-11.7869
▁Recovery	-11.7871
War	-11.7871
▁Death	-11.7873
▁cushion	-11.7873
▁Ukraine	-11.7877
▁alien	-11.7877
▁coordinate	-11.7878
▁Chicken	-11.7878
Extractor	-11.7878
▁FM	-11.788
▁71	-11.7884
▁toxic	-11.7885
▁Soul	-11.7885
▁Bug	-11.7885
▁Chocolate	-11.7886
GI	-11.7886
▁FDA	-11.7887
Features	-11.7887
ope	-11.7888
▁Operations	-11.7889
▁vocal	-11.7891
▁memorial	-11.7894
▁fuse	-11.7894
they	-11.7895
▁Duke	-11.7895
iding	-11.7895
▁replica	-11.7895
▁districts	-11.7896
▁villa	-11.7897
3-	-11.7898
▁backgrounds	-11.7899
▁acoustic	-11.7899
▁identical	-11.7899
Hi	-11.79
▁hills	-11.7902
oa	-11.7904
▁sponsors	-11.7905
Changes	-11.7907
thy	-11.7908
▁barriers	-11.7908
▁hose	-11.7909
▁magnet	-11.791
▁crawl	-11.791
▁NULL	-11.7911
▁enrolled	-11.7912
▁waters	-11.7913
▁Admin	-11.7914
▁bail	-11.7917
OY	-11.7919
▁potato	-11.792
Mon	-11.7921
nut	-11.7922
▁Ready	-11.7923
▁rally	-11.7924
FE	-11.7924
▁nationally	-11.7924
Primary	-11.7927
▁getX	-11.7927
▁adjustment	-11.7927
mble	-11.7929
mination	-11.7932
ido	-11.7932
▁hungry	-11.7932
oda	-11.7935
Ba	-11.7936
▁duct	-11.7938
change	-11.7938
▁descend	-11.794
▁decorate	-11.7942
▁reminded	-11.7943
▁Physical	-11.7944
Highlight	-11.7945
PH	-11.7946
▁surveys	-11.7948
▁MY	-11.795
▁tongue	-11.7951
▁toast	-11.7954
250	-11.7956
▁strengths	-11.7956
▁NI	-11.7956
_8	-11.7957
▁qui	-11.7957
books	-11.7959
▁Hart	-11.796
▁Kent	-11.796
0"	-11.7961
▁judgment	-11.7962
▁creatures	-11.7962
▁counsel	-11.7963
▁lender	-11.7964
▁30%	-11.7964
▁proudly	-11.7965
second	-11.7965
▁88	-11.7965
Deploy	-11.7965
▁textile	-11.7966
▁survived	-11.7967
▁welfare	-11.7967
▁festivals	-11.7968
Face	-11.7969
KA	-11.7971
▁dim	-11.7972
nLo	-11.7972
rod	-11.7972
▁OutputStream	-11.7974
cro	-11.7974
▁Structure	-11.7978
▁pine	-11.7978
2014	-11.7978
▁draws	-11.7979
▁lamps	-11.7981
oriented	-11.7981
▁Secure	-11.7981
▁elastic	-11.7983
▁msgs	-11.7983
▁BBQ	-11.7984
▁Theater	-11.7985
▁ghost	-11.7985
▁barn	-11.7989
▁offensive	-11.7989
▁(2)	-11.7989
▁touches	-11.7993
▁Francis	-11.7994
▁GL	-11.7995
Scenario	-11.7995
▁Fin	-11.7996
cB	-11.7997
3%	-11.7997
▁Tam	-11.7998
▁timeline	-11.7999
ended	-11.8
▁Harbor	-11.8
Dirty	-11.8001
▁pressing	-11.8003
Quota	-11.8004
▁epi	-11.8005
▁implant	-11.8006
▁poem	-11.8006
▁splash	-11.8007
▁ankle	-11.8008
roy	-11.8008
▁whi	-11.8009
▁Clinical	-11.8009
ITY	-11.8009
▁stairs	-11.801
IST	-11.801
ean	-11.801
▁fibre	-11.8012
▁Phase	-11.8015
Ext	-11.8015
▁Lower	-11.8017
Alert	-11.8018
▁determining	-11.8018
▁insured	-11.8018
▁san	-11.8018
▁statistical	-11.8019
Patient	-11.8019
▁retro	-11.802
Completed	-11.802
▁pioneer	-11.8021
HashCode	-11.8022
there	-11.8022
Break	-11.8024
▁ABC	-11.8025
Track	-11.8025
▁Consultant	-11.8026
150	-11.8027
▁Prepare	-11.8027
▁CharSequence	-11.8029
gel	-11.8032
▁pose	-11.8033
cup	-11.8035
▁boiler	-11.8036
▁landmark	-11.8036
shed	-11.8037
▁Archive	-11.8039
▁secrets	-11.804
▁Princess	-11.8041
▁gang	-11.8041
▁Laura	-11.8044
▁Stra	-11.8044
RF	-11.8046
Qu	-11.8046
bee	-11.8047
Representation	-11.8047
▁Transportation	-11.8048
▁advancement	-11.8049
▁staple	-11.8052
▁refined	-11.8052
Al	-11.8052
▁voices	-11.8052
MT	-11.8052
Age	-11.8053
▁worthy	-11.8053
▁LP	-11.8054
▁ERROR	-11.8056
ckle	-11.8058
▁killer	-11.806
▁diff	-11.806
Successful	-11.8061
Li	-11.8061
▁Plain	-11.8063
▁landlord	-11.8063
OLD	-11.8066
▁RI	-11.8067
▁Further	-11.8069
▁59	-11.8069
tell	-11.807
▁radiation	-11.807
▁ram	-11.8073
▁OEM	-11.8073
Pending	-11.8076
▁Production	-11.8077
▁Solid	-11.8077
▁18,	-11.8078
Composite	-11.8078
▁locks	-11.808
▁ample	-11.8081
shaped	-11.8081
▁compression	-11.8082
GP	-11.8083
▁00	-11.8084
mod	-11.8086
logical	-11.8087
stic	-11.8087
▁Teacher	-11.8089
Sender	-11.8089
▁ranks	-11.809
▁Justin	-11.809
hem	-11.809
▁cls	-11.8091
▁tier	-11.8092
▁Load	-11.8092
▁chi	-11.8093
Lines	-11.8095
▁submitting	-11.8096
▁Wave	-11.8096
▁96	-11.8096
▁landscaping	-11.8097
▁Nike	-11.81
wash	-11.81
▁receives	-11.81
▁bot	-11.8101
▁anybody	-11.8102
trust	-11.8102
▁SET	-11.8103
LINE	-11.8103
Organization	-11.8103
▁curtain	-11.8103
▁Swedish	-11.8103
▁complications	-11.8103
▁retention	-11.8104
▁isTrue	-11.8105
eva	-11.8106
▁hello	-11.8106
uel	-11.8107
Temp	-11.8109
▁pursuit	-11.8109
apped	-11.8109
▁POST	-11.811
then	-11.811
▁ARE	-11.8111
▁humor	-11.8112
▁configured	-11.8112
ility	-11.8113
▁contentType	-11.8115
▁normalize	-11.8115
Are	-11.8116
▁attraction	-11.8118
Transport	-11.8119
▁Eat	-11.8119
drop	-11.812
ders	-11.8125
▁powers	-11.8125
▁Upon	-11.8125
▁Runtime	-11.8125
▁Bike	-11.8125
▁nominated	-11.8126
▁MIN	-11.8127
▁Worth	-11.8127
PG	-11.8128
▁Output	-11.8128
▁summit	-11.8128
▁propose	-11.8128
▁governor	-11.8128
▁sleeves	-11.8129
▁hu	-11.813
▁theft	-11.813
▁hammer	-11.8133
nView	-11.8134
▁rival	-11.8134
lis	-11.8135
▁musician	-11.8136
May	-11.8136
▁emerge	-11.8136
▁bare	-11.8137
isco	-11.8137
▁reflected	-11.8137
▁mad	-11.8137
▁Analytics	-11.8138
Ms	-11.814
▁Sab	-11.8142
▁lenders	-11.8142
cum	-11.8144
▁lineup	-11.8144
InvalidProtocol	-11.8145
▁AST	-11.8146
Fixed	-11.8146
▁Engineer	-11.8146
xcf	-11.815
▁je	-11.8151
▁contacting	-11.8153
▁Picture	-11.8154
▁Birmingham	-11.8155
Di	-11.8156
▁violation	-11.8156
▁electro	-11.8156
▁Traditional	-11.8157
▁Polish	-11.8158
▁hypo	-11.816
▁Jennifer	-11.816
▁peanut	-11.8161
▁upgrades	-11.8161
▁tutor	-11.8162
▁apparent	-11.8165
▁presenter	-11.8165
▁demographic	-11.8166
mos	-11.8167
▁10,	-11.8169
▁honestly	-11.8169
hang	-11.817
gun	-11.8171
UID	-11.8172
▁","	-11.8172
job	-11.8173
▁VO	-11.8174
▁teen	-11.8175
▁spam	-11.8176
RD	-11.8177
▁Managed	-11.8178
▁Certification	-11.8178
kie	-11.818
eta	-11.818
works	-11.8181
▁sleek	-11.8184
▁numberOf	-11.8185
▁variation	-11.8185
▁coated	-11.8186
▁1991	-11.8187
▁Gro	-11.8188
mil	-11.8189
MAP	-11.8189
▁salmon	-11.819
▁ebook	-11.819
ChangeListener	-11.8193
▁Gr	-11.8194
▁counties	-11.8194
▁shame	-11.8196
▁bespoke	-11.8197
▁volumes	-11.8199
▁alloy	-11.82
▁Syria	-11.8201
▁wrist	-11.8202
izable	-11.8203
▁manifest	-11.8206
▁sealed	-11.8207
▁Essential	-11.8207
▁sal	-11.8207
▁SK	-11.8209
▁Bet	-11.821
nAl	-11.8211
▁Protocol	-11.8211
▁getLong	-11.8211
▁reporter	-11.8216
Dictionary	-11.8217
▁GR	-11.8217
▁webinar	-11.8218
▁"."	-11.8218
▁Assessment	-11.8219
▁readily	-11.8221
▁gloves	-11.8222
nick	-11.8222
fix	-11.8222
Received	-11.8222
PD	-11.8223
1000	-11.8223
▁Brit	-11.8224
Broker	-11.8224
▁rides	-11.8224
▁ET	-11.8225
▁weddings	-11.8225
::	-11.8227
▁plum	-11.8227
▁fried	-11.8227
▁festive	-11.823
▁Timestamp	-11.823
▁persistent	-11.8231
▁nails	-11.8231
▁consisting	-11.8232
▁continent	-11.8232
▁Career	-11.8232
[...]
